#pragma once

#ifdef __has_attribute
#define HAVE_ATTRIBUTE(x) __has_attribute(x)
#else
#define HAVE_ATTRIBUTE(x) 0
#endif
#if HAVE_ATTRIBUTE(aligned) || (defined(__GNUC__) && !defined(__clang__))
#define DATA_ALIGN_ATTRIBUTE __attribute__((aligned(4)))
#else
#define DATA_ALIGN_ATTRIBUTE
#endif

// automatically configure network
#define TF_NUM_INPUTS 3
#define TF_NUM_OUTPUTS 1
#define TF_NUM_OPS 1
#define TF_OP_FULLYCONNECTED




// sample data
float x0[3] = {8.86999988556f, 18.00000000000f, 3.46000003815f};


/** model size = 6056 bytes **/
const unsigned char smartLeleModel[] DATA_ALIGN_ATTRIBUTE = { 0x1c, 0x00, 0x00, 0x00, 0x54, 0x46, 0x4c, 0x33, 0x14, 0x00, 0x20, 0x00, 0x1c, 0x00, 0x18, 0x00, 0x14, 0x00, 0x10, 0x00, 0x0c, 0x00, 0x00, 0x00, 0x08, 0x00, 0x04, 0x00, 0x14, 0x00, 0x00, 0x00, 0x1c, 0x00, 0x00, 0x00, 0x8c, 0x00, 0x00, 0x00, 0xe4, 0x00, 0x00, 0x00, 0x90, 0x11, 0x00, 0x00, 0xa0, 0x11, 0x00, 0x00, 0x44, 0x17, 0x00, 0x00, 0x03, 0x00, 0x00, 0x00, 0x01, 0x00, 0x00, 0x00, 0x04, 0x00, 0x00, 0x00, 0x22, 0xee, 0xff, 0xff, 0x0c, 0x00, 0x00, 0x00, 0x1c, 0x00, 0x00, 0x00, 0x3c, 0x00, 0x00, 0x00, 0x0f, 0x00, 0x00, 0x00, 0x73, 0x65, 0x72, 0x76, 0x69, 0x6e, 0x67, 0x5f, 0x64, 0x65, 0x66, 0x61, 0x75, 0x6c, 0x74, 0x00, 0x01, 0x00, 0x00, 0x00, 0x04, 0x00, 0x00, 0x00, 0x90, 0xff, 0xff, 0xff, 0x0a, 0x00, 0x00, 0x00, 0x04, 0x00, 0x00, 0x00, 0x08, 0x00, 0x00, 0x00, 0x6f, 0x75, 0x74, 0x70, 0x75, 0x74, 0x5f, 0x30, 0x00, 0x00, 0x00, 0x00, 0x01, 0x00, 0x00, 0x00, 0x04, 0x00, 0x00, 0x00, 0x32, 0xef, 0xff, 0xff, 0x04, 0x00, 0x00, 0x00, 0x0f, 0x00, 0x00, 0x00, 0x6b, 0x65, 0x72, 0x61, 0x73, 0x5f, 0x74, 0x65, 0x6e, 0x73, 0x6f, 0x72, 0x5f, 0x35, 0x30, 0x00, 0x02, 0x00, 0x00, 0x00, 0x34, 0x00, 0x00, 0x00, 0x04, 0x00, 0x00, 0x00, 0xdc, 0xff, 0xff, 0xff, 0x0d, 0x00, 0x00, 0x00, 0x04, 0x00, 0x00, 0x00, 0x13, 0x00, 0x00, 0x00, 0x43, 0x4f, 0x4e, 0x56, 0x45, 0x52, 0x53, 0x49, 0x4f, 0x4e, 0x5f, 0x4d, 0x45, 0x54, 0x41, 0x44, 0x41, 0x54, 0x41, 0x00, 0x08, 0x00, 0x0c, 0x00, 0x08, 0x00, 0x04, 0x00, 0x08, 0x00, 0x00, 0x00, 0x0c, 0x00, 0x00, 0x00, 0x04, 0x00, 0x00, 0x00, 0x13, 0x00, 0x00, 0x00, 0x6d, 0x69, 0x6e, 0x5f, 0x72, 0x75, 0x6e, 0x74, 0x69, 0x6d, 0x65, 0x5f, 0x76, 0x65, 0x72, 0x73, 0x69, 0x6f, 0x6e, 0x00, 0x0e, 0x00, 0x00, 0x00, 0xa8, 0x10, 0x00, 0x00, 0xa0, 0x10, 0x00, 0x00, 0x50, 0x10, 0x00, 0x00, 0x38, 0x04, 0x00, 0x00, 0x24, 0x04, 0x00, 0x00, 0xd4, 0x03, 0x00, 0x00, 0x04, 0x03, 0x00, 0x00, 0xb4, 0x00, 0x00, 0x00, 0xac, 0x00, 0x00, 0x00, 0xa4, 0x00, 0x00, 0x00, 0x9c, 0x00, 0x00, 0x00, 0x94, 0x00, 0x00, 0x00, 0x74, 0x00, 0x00, 0x00, 0x04, 0x00, 0x00, 0x00, 0xe6, 0xef, 0xff, 0xff, 0x04, 0x00, 0x00, 0x00, 0x60, 0x00, 0x00, 0x00, 0x10, 0x00, 0x00, 0x00, 0x00, 0x00, 0x00, 0x00, 0x08, 0x00, 0x0e, 0x00, 0x08, 0x00, 0x04, 0x00, 0x08, 0x00, 0x00, 0x00, 0x10, 0x00, 0x00, 0x00, 0x24, 0x00, 0x00, 0x00, 0x00, 0x00, 0x06, 0x00, 0x08, 0x00, 0x04, 0x00, 0x06, 0x00, 0x00, 0x00, 0x04, 0x00, 0x00, 0x00, 0x00, 0x00, 0x00, 0x00, 0x0c, 0x00, 0x18, 0x00, 0x14, 0x00, 0x10, 0x00, 0x0c, 0x00, 0x04, 0x00, 0x0c, 0x00, 0x00, 0x00, 0x0b, 0x08, 0x21, 0xe8, 0x18, 0x79, 0x9f, 0x1f, 0x02, 0x00, 0x00, 0x00, 0x02, 0x00, 0x00, 0x00, 0x04, 0x00, 0x00, 0x00, 0x06, 0x00, 0x00, 0x00, 0x32, 0x2e, 0x31, 0x38, 0x2e, 0x30, 0x00, 0x00, 0x52, 0xf0, 0xff, 0xff, 0x04, 0x00, 0x00, 0x00, 0x10, 0x00, 0x00, 0x00, 0x31, 0x2e, 0x31, 0x34, 0x2e, 0x30, 0x00, 0x00, 0x00, 0x00, 0x00, 0x00, 0x00, 0x00, 0x00, 0x00, 0x94, 0xea, 0xff, 0xff, 0x98, 0xea, 0xff, 0xff, 0x9c, 0xea, 0xff, 0xff, 0xa0, 0xea, 0xff, 0xff, 0x7e, 0xf0, 0xff, 0xff, 0x04, 0x00, 0x00, 0x00, 0x40, 0x02, 0x00, 0x00, 0x60, 0x84, 0xde, 0xbd, 0x7b, 0xe5, 0x34, 0xbf, 0xee, 0xd1, 0xac, 0xbe, 0xef, 0xcb, 0xc8, 0x3e, 0x7d, 0xb1, 0x15, 0x3d, 0x2b, 0xff, 0x85, 0xbf, 0x64, 0xb9, 0x8d, 0xbe, 0xe9, 0xed, 0x04, 0xbf, 0x5c, 0xdf, 0x02, 0x3e, 0x49, 0x4e, 0xd9, 0x3d, 0xd1, 0x71, 0xd2, 0x3d, 0x59, 0x01, 0x03, 0x3c, 0x9d, 0x8a, 0x5f, 0xc0, 0x96, 0xab, 0x04, 0xc1, 0xed, 0x63, 0x06, 0x40, 0x41, 0x47, 0x4e, 0xc0, 0xe6, 0xec, 0x7e, 0xc0, 0x27, 0x9f, 0x30, 0x40, 0x27, 0xc1, 0x94, 0x3f, 0xb9, 0x54, 0x05, 0xc0, 0x6b, 0x6b, 0x00, 0xc0, 0xab, 0x1f, 0xb0, 0xbd, 0x93, 0xab, 0x6f, 0xbd, 0x31, 0x8f, 0x7e, 0xbd, 0xc1, 0x2c, 0x87, 0xbe, 0xa4, 0xe9, 0xdb, 0xc0, 0x81, 0xf1, 0xd7, 0xbf, 0x32, 0xdd, 0xea, 0xbf, 0xe6, 0x2a, 0x00, 0xc1, 0x36, 0x88, 0x00, 0x40, 0x95, 0x79, 0x0c, 0xc0, 0x90, 0xcf, 0xf8, 0xbf, 0x55, 0xfb, 0xea, 0xbf, 0x60, 0xd1, 0xc1, 0x3f, 0xa5, 0x6d, 0x23, 0xc0, 0xe3, 0xd7, 0xb5, 0xbf, 0x74, 0x88, 0x05, 0x40, 0x56, 0xd8, 0x2b, 0xbf, 0x3d, 0x5d, 0xdb, 0xbf, 0x81, 0xfe, 0x90, 0xbe, 0xf2, 0xa7, 0x21, 0xbe, 0xd1, 0x81, 0xd7, 0xbe, 0xd2, 0xf8, 0x02, 0x40, 0x21, 0x65, 0x62, 0xc1, 0xa0, 0x82, 0x4e, 0x3f, 0x63, 0xf6, 0x80, 0xc0, 0xed, 0xd5, 0xd3, 0x3f, 0x9b, 0x33, 0x21, 0x40, 0xbe, 0xb9, 0xf8, 0xbf, 0x42, 0x54, 0x87, 0xc0, 0x53, 0xf5, 0xad, 0x3f, 0x6c, 0x70, 0xf1, 0x3d, 0x91, 0xa5, 0x76, 0xc1, 0x13, 0x1a, 0xf0, 0x3d, 0x1a, 0xb5, 0x1e, 0xbf, 0xe0, 0x98, 0x8a, 0xbf, 0x91, 0xca, 0x0b, 0xc0, 0xf5, 0xc1, 0x81, 0xbf, 0x15, 0xc9, 0x0c, 0xbf, 0xe1, 0xea, 0xa3, 0x3e, 0x60, 0x63, 0x6e, 0xc0, 0xb8, 0x76, 0x54, 0xc1, 0x78, 0xb3, 0xc0, 0x3f, 0xce, 0xc7, 0x90, 0xbf, 0xdc, 0x70, 0x5a, 0xc0, 0x2f, 0xac, 0xc3, 0xbf, 0x26, 0x00, 0x9d, 0x3e, 0x83, 0x16, 0xac, 0xbe, 0x7e, 0xd7, 0xfe, 0xbe, 0x83, 0x4e, 0x08, 0xbe, 0x4b, 0xec, 0x83, 0x3f, 0x52, 0x1a, 0x4c, 0xbe, 0x9d, 0x18, 0x38, 0xbe, 0x33, 0xc1, 0x49, 0xc0, 0x2b, 0x1d, 0xb8, 0x3e, 0xc9, 0x88, 0x00, 0x40, 0xd7, 0xfc, 0x51, 0xc0, 0x30, 0x73, 0xbc, 0xbf, 0xd6, 0x87, 0x6d, 0xbf, 0x6f, 0x8c, 0xd1, 0xc0, 0xfd, 0xdf, 0xa0, 0x40, 0xe1, 0x15, 0xef, 0xbd, 0x59, 0x0c, 0x6d, 0xbe, 0xc4, 0x0d, 0x8a, 0xbd, 0x0f, 0x39, 0x44, 0x3f, 0xb2, 0x41, 0x7d, 0xbf, 0x74, 0xa9, 0x23, 0x3e, 0x8b, 0x04, 0x42, 0x3f, 0x51, 0x84, 0x41, 0xc1, 0xbb, 0x44, 0x9d, 0xbd, 0xf5, 0xe8, 0x25, 0xbf, 0x37, 0x68, 0x08, 0xc2, 0x28, 0x9f, 0xa3, 0xbf, 0xb5, 0x60, 0x5c, 0x40, 0xc6, 0x24, 0x97, 0xc0, 0x01, 0x25, 0xa4, 0x40, 0xce, 0x56, 0x8c, 0xbe, 0x59, 0x0f, 0x46, 0xbf, 0x1f, 0x81, 0x90, 0x3d, 0xcb, 0xa8, 0xa4, 0xbe, 0x77, 0x71, 0xda, 0xbe, 0x50, 0x0c, 0x03, 0xbf, 0x66, 0xf3, 0x32, 0x3d, 0x6c, 0x25, 0x97, 0xc1, 0xc5, 0x1f, 0x0c, 0xbf, 0x2d, 0xd7, 0x2c, 0xbd, 0xdc, 0xf6, 0x00, 0x41, 0x38, 0x56, 0x81, 0xbe, 0x49, 0x8d, 0x85, 0xbf, 0xd1, 0xc4, 0xaf, 0xc0, 0x10, 0x5a, 0x34, 0xc0, 0x7a, 0x12, 0xc5, 0x3f, 0x9f, 0xc1, 0x06, 0xc0, 0xa4, 0x09, 0xaf, 0xbf, 0x4c, 0x29, 0x0c, 0xbf, 0x86, 0xeb, 0xce, 0xc0, 0x38, 0x54, 0x76, 0xbf, 0x41, 0x94, 0xb6, 0xc0, 0x1f, 0x27, 0x72, 0xc0, 0x40, 0xec, 0x12, 0xc0, 0x49, 0x51, 0x3c, 0x3f, 0x51, 0x20, 0xdf, 0xbf, 0x29, 0x73, 0x9d, 0x3d, 0x2f, 0xe2, 0x5a, 0x3f, 0x2f, 0xbb, 0x6f, 0xbf, 0x78, 0x9c, 0xcb, 0x3f, 0x0e, 0x87, 0x2b, 0x3e, 0x31, 0x62, 0x18, 0xc0, 0x3f, 0x49, 0x2b, 0xc0, 0x2f, 0xc6, 0x4f, 0xc0, 0xc7, 0x22, 0x56, 0xc0, 0x88, 0x01, 0x85, 0xbe, 0x82, 0x07, 0xae, 0xbe, 0xe1, 0x56, 0x8f, 0xc0, 0x9e, 0x47, 0x7e, 0xc0, 0x06, 0x67, 0x84, 0xbe, 0x3a, 0x68, 0x2d, 0xb9, 0x58, 0xda, 0x91, 0xbd, 0xdc, 0x97, 0x44, 0xbe, 0x7e, 0x1f, 0xb1, 0x3e, 0xd0, 0x91, 0x4c, 0xbe, 0x38, 0x1d, 0x87, 0xbe, 0xb1, 0xd4, 0x2c, 0xbf, 0x14, 0x80, 0xbb, 0xbd, 0xca, 0xf2, 0xff, 0xff, 0x04, 0x00, 0x00, 0x00, 0xc0, 0x00, 0x00, 0x00, 0x27, 0x5f, 0xba, 0xbf, 0x42, 0xaa, 0x96, 0xc0, 0x13, 0xbd, 0x98, 0xbf, 0x2a, 0x28, 0x53, 0xbf, 0xc0, 0x10, 0xbb, 0xc0, 0xe2, 0x38, 0xc0, 0xc0, 0xe8, 0x50, 0xfe, 0xc0, 0x35, 0x86, 0xa8, 0xbe, 0xd4, 0xed, 0xa9, 0xc0, 0x22, 0x9d, 0x92, 0xc0, 0x02, 0xea, 0xd7, 0xc0, 0xe5, 0x50, 0xe9, 0xc0, 0xfa, 0x39, 0xb4, 0xc0, 0x1e, 0x28, 0x94, 0xbf, 0xad, 0x10, 0x5a, 0xc0, 0xec, 0x0c, 0x17, 0xc1, 0x0f, 0xdb, 0x12, 0xc1, 0xc8, 0x10, 0x57, 0xc0, 0xbe, 0xbb, 0xbc, 0xc0, 0xca, 0xa0, 0x33, 0xc0, 0x7b, 0xdc, 0xd2, 0xc0, 0x88, 0xd7, 0x04, 0xc1, 0xa0, 0x90, 0x85, 0xbf, 0x9f, 0xab, 0x34, 0xc0, 0x95, 0x16, 0xfc, 0xc0, 0xab, 0x1c, 0xcb, 0xc0, 0x91, 0xa9, 0x6c, 0x3f, 0x5b, 0xa4, 0x3c, 0xbf, 0x9c, 0x1f, 0x29, 0xc0, 0xe7, 0x4b, 0x51, 0xc0, 0x8e, 0xf6, 0x64, 0x3f, 0x2d, 0x73, 0xf1, 0xc0, 0xbd, 0xb0, 0x9d, 0xbf, 0xa4, 0x87, 0xc4, 0xbf, 0xf9, 0x1d, 0x81, 0xc0, 0x52, 0xe2, 0x15, 0xc1, 0x87, 0x16, 0x30, 0xc0, 0xff, 0xd2, 0xb8, 0xc0, 0xb3, 0xea, 0xde, 0xc0, 0xfb, 0x3a, 0xe7, 0xc0, 0x0f, 0x05, 0x9a, 0xc0, 0x84, 0xb4, 0x1f, 0xc1, 0x82, 0x68, 0xd9, 0xc0, 0x5d, 0x8d, 0x82, 0xc0, 0x94, 0xc8, 0x2e, 0xc0, 0x82, 0x82, 0x3f, 0xbf, 0x88, 0xa1, 0xa1, 0xbf, 0x5b, 0x5c, 0x8c, 0xbf, 0x96, 0xf3, 0xff, 0xff, 0x04, 0x00, 0x00, 0x00, 0x40, 0x00, 0x00, 0x00, 0x8b, 0xff, 0x4f, 0xc1, 0x6a, 0x4b, 0xc6, 0xc0, 0x9f, 0x21, 0xb4, 0xc0, 0x99, 0x0b, 0xb0, 0xbf, 0x32, 0xc2, 0x27, 0xc1, 0x13, 0x32, 0x2c, 0xbf, 0x2d, 0x21, 0xab, 0xc0, 0x10, 0x1e, 0x7e, 0xc0, 0xbb, 0x4b, 0x68, 0xc0, 0xb9, 0x9a, 0x80, 0xc0, 0x21, 0x13, 0x02, 0xc1, 0x76, 0xa1, 0xd2, 0xc0, 0x60, 0x2d, 0x3b, 0xc1, 0x21, 0xfa, 0x9a, 0xc0, 0xec, 0x5e, 0x8c, 0xc0, 0x1f, 0x16, 0xa5, 0xc0, 0xe2, 0xf3, 0xff, 0xff, 0x04, 0x00, 0x00, 0x00, 0x04, 0x00, 0x00, 0x00, 0x85, 0x19, 0x75, 0x40, 0xf2, 0xf3, 0xff, 0xff, 0x04, 0x00, 0x00, 0x00, 0x00, 0x0c, 0x00, 0x00, 0xaf, 0xf1, 0x8d, 0xbe, 0x88, 0x4e, 0x93, 0x40, 0xab, 0x28, 0xd3, 0x3e, 0x04, 0x4b, 0x37, 0xbf, 0x9e, 0x89, 0x00, 0x41, 0x8b, 0x47, 0xb6, 0x40, 0xdd, 0xf8, 0x76, 0x40, 0xf5, 0x60, 0x17, 0xbe, 0x95, 0xfb, 0x00, 0x40, 0x71, 0x73, 0x96, 0x40, 0xf9, 0x85, 0x71, 0xc0, 0xe4, 0xc9, 0x52, 0xc0, 0x36, 0xc0, 0xc2, 0x3f, 0xfb, 0x78, 0xa1, 0x3f, 0xf8, 0x2b, 0xb1, 0x3f, 0xf9, 0xfd, 0xe0, 0x40, 0x4f, 0xba, 0xeb, 0x3d, 0x41, 0xf7, 0x62, 0xbf, 0xd8, 0xac, 0xd3, 0xbf, 0x13, 0x5d, 0x27, 0xbe, 0xa6, 0x83, 0x85, 0x3f, 0x95, 0x09, 0x9d, 0xbf, 0xba, 0x47, 0x15, 0x3f, 0x0f, 0x7b, 0xf2, 0xbf, 0x6b, 0x64, 0xed, 0x3f, 0xde, 0xa6, 0x8f, 0x40, 0xed, 0x2c, 0x9c, 0xc0, 0xb4, 0xcb, 0x9f, 0xbf, 0x9e, 0xf5, 0x4e, 0x3e, 0x1f, 0x2b, 0x94, 0x3e, 0xb0, 0xf9, 0x4a, 0x41, 0x71, 0x01, 0x93, 0xc0, 0xa4, 0xf3, 0xa1, 0x3d, 0x1a, 0x93, 0x6b, 0xbe, 0x6a, 0x3f, 0xa1, 0x3f, 0x66, 0x93, 0xcc, 0x3d, 0x7c, 0x5b, 0xdc, 0xbf, 0x90, 0xbd, 0x71, 0x40, 0x76, 0xe4, 0x2f, 0xbe, 0xd3, 0x93, 0xaf, 0x40, 0xc0, 0x5b, 0x8b, 0xbf, 0x85, 0x1f, 0x29, 0x40, 0x71, 0x62, 0x43, 0x40, 0x86, 0x9d, 0x23, 0xbf, 0x2d, 0x1c, 0x27, 0xc0, 0x82, 0x36, 0x6b, 0x3d, 0x44, 0x71, 0xfc, 0xbd, 0x3d, 0x2d, 0x55, 0xbe, 0x97, 0xd6, 0x07, 0xbf, 0x56, 0x04, 0xd6, 0xbf, 0xe6, 0x47, 0x66, 0xbf, 0x05, 0xd0, 0xf5, 0xbe, 0x63, 0x28, 0xc1, 0xbe, 0xd7, 0xa8, 0x00, 0xbf, 0xc4, 0xc2, 0x33, 0xbf, 0xf2, 0x79, 0xcd, 0xbe, 0x21, 0xa0, 0xed, 0xbf, 0xf4, 0x5f, 0x37, 0xbf, 0x76, 0x34, 0x05, 0xbf, 0xa2, 0x16, 0xae, 0xbf, 0xfe, 0xd6, 0xc9, 0xbe, 0xf2, 0xda, 0x55, 0xbf, 0xdf, 0x04, 0x0a, 0x3e, 0x47, 0xc6, 0x23, 0xc0, 0x32, 0xf8, 0x5d, 0xbf, 0x80, 0xda, 0xc4, 0xbf, 0xe6, 0x1f, 0x0a, 0xc0, 0xd9, 0xd5, 0x53, 0xbf, 0x8a, 0x24, 0x39, 0x3f, 0xe4, 0xc6, 0x1e, 0xbf, 0xdc, 0xd1, 0xdb, 0x3d, 0x8d, 0x59, 0x4d, 0xbf, 0xcc, 0xae, 0x53, 0xbf, 0xe3, 0xb1, 0x03, 0xbf, 0x71, 0xd5, 0x53, 0xc0, 0x9a, 0x87, 0x2b, 0xbf, 0x67, 0x95, 0x80, 0xbf, 0x8b, 0x77, 0x6e, 0xbd, 0xa5, 0x30, 0x79, 0xc0, 0x52, 0xe8, 0xe4, 0xbf, 0xe8, 0x3f, 0x4c, 0xbf, 0x0d, 0x0a, 0xde, 0xbe, 0xff, 0xcc, 0x81, 0xc0, 0x18, 0xf4, 0x63, 0xbf, 0x9f, 0x8e, 0x30, 0xc0, 0x9e, 0xcc, 0xc0, 0xbe, 0xf6, 0xb8, 0xe6, 0xbe, 0xd6, 0x7c, 0x4b, 0xbf, 0x95, 0xb9, 0xf1, 0xbe, 0x04, 0x9a, 0x27, 0xbf, 0x7c, 0x55, 0x1f, 0xbf, 0xd6, 0x96, 0x6a, 0xbf, 0x4e, 0x51, 0x0c, 0xbf, 0x76, 0x91, 0xf0, 0xbe, 0x71, 0xe1, 0xa9, 0xbe, 0x4f, 0xd1, 0xab, 0xbd, 0x9f, 0xd2, 0x0a, 0xbe, 0xeb, 0xf9, 0xb5, 0xbf, 0x62, 0xcd, 0x4b, 0xbe, 0x76, 0xc0, 0x41, 0xbd, 0x34, 0x5a, 0xbb, 0xbd, 0x22, 0x2b, 0x5a, 0xbe, 0x8b, 0xc4, 0xb1, 0xbd, 0x7f, 0xd8, 0x48, 0x3e, 0xee, 0x3f, 0x4d, 0xbf, 0xed, 0x51, 0x1f, 0xc0, 0x5d, 0xd0, 0xdf, 0xbd, 0x10, 0xba, 0xca, 0x3f, 0xef, 0x9b, 0x1f, 0x3c, 0xd9, 0x91, 0x11, 0x3e, 0x7e, 0x1b, 0x0a, 0xc0, 0x28, 0x79, 0x66, 0xc0, 0x1c, 0xa3, 0xde, 0xc0, 0x14, 0xb7, 0xf1, 0xbf, 0x91, 0x75, 0xbf, 0x3e, 0x04, 0x9c, 0x23, 0xbf, 0x4a, 0x1d, 0x83, 0xc0, 0xdd, 0xa4, 0xbd, 0x3f, 0x68, 0x8e, 0xa9, 0xbe, 0xe6, 0x84, 0x2f, 0xbf, 0x26, 0x36, 0x4e, 0x3e, 0x64, 0x5c, 0x52, 0x3f, 0x71, 0x26, 0x45, 0xc0, 0xbe, 0x9d, 0x2d, 0xbe, 0x0b, 0xbe, 0x7b, 0xbe, 0x3c, 0x14, 0xe8, 0x3e, 0x00, 0x61, 0xed, 0xc0, 0x23, 0xc6, 0x9a, 0xc0, 0xfe, 0x59, 0x86, 0xbd, 0x10, 0x5b, 0x39, 0x3d, 0x4a, 0xda, 0xa5, 0xc0, 0x06, 0x8c, 0x36, 0xc1, 0x66, 0x87, 0xe0, 0xbf, 0xb3, 0x58, 0x71, 0x3f, 0x10, 0x6b, 0x1a, 0x3f, 0xc9, 0x27, 0x73, 0xbd, 0x09, 0xeb, 0x64, 0x3e, 0x55, 0x9a, 0x80, 0x3e, 0xa3, 0xa3, 0x3f, 0xbe, 0x7a, 0x21, 0xb9, 0xbf, 0xaa, 0x34, 0x4d, 0xbf, 0xe4, 0xba, 0x8f, 0x3e, 0x5c, 0x36, 0x68, 0x3e, 0x2c, 0xd4, 0x89, 0x3e, 0xe4, 0xca, 0x06, 0xbf, 0x45, 0x17, 0x96, 0xbd, 0xb8, 0x3f, 0x51, 0xbf, 0x2a, 0x26, 0x2b, 0xbf, 0xeb, 0x7c, 0x90, 0xc0, 0x8b, 0xea, 0x6f, 0xc0, 0x30, 0xc0, 0x21, 0xbf, 0x3f, 0xfa, 0xa4, 0xbe, 0xd3, 0xe4, 0xc3, 0xbd, 0xae, 0x53, 0x35, 0xc0, 0xd7, 0xd6, 0x56, 0xc0, 0x6f, 0x95, 0xf7, 0xbf, 0x99, 0xd9, 0x03, 0xc0, 0xd3, 0xd0, 0x25, 0x3f, 0x8d, 0xc0, 0xb5, 0xbf, 0x90, 0xa2, 0x89, 0x3f, 0x69, 0x8d, 0x0a, 0x40, 0xce, 0xae, 0x80, 0xbf, 0x21, 0x7c, 0x08, 0xbe, 0xd0, 0x5a, 0x18, 0xbf, 0x62, 0xec, 0x83, 0xbf, 0x10, 0x28, 0x49, 0xbf, 0x1f, 0xb5, 0x65, 0xbe, 0xc7, 0x81, 0x6d, 0xbf, 0x47, 0x22, 0x24, 0x3f, 0x0e, 0x01, 0x3f, 0x3f, 0x60, 0xb0, 0x81, 0xc0, 0xa2, 0x2c, 0xf6, 0xbd, 0x0a, 0x7b, 0x76, 0x3e, 0xc2, 0x49, 0x95, 0xbe, 0x20, 0x27, 0x22, 0xbf, 0xc5, 0xec, 0xfa, 0xbf, 0x93, 0xc4, 0x76, 0xbf, 0xa7, 0x39, 0x53, 0xbe, 0x45, 0x7e, 0x2f, 0xbf, 0x74, 0x0b, 0xd3, 0xbf, 0x08, 0xa2, 0x8e, 0xc0, 0x33, 0xc4, 0x61, 0x3f, 0x7e, 0x89, 0x5d, 0x3e, 0xcd, 0xc7, 0x36, 0xc0, 0x42, 0x52, 0x4c, 0xc0, 0xda, 0xbe, 0x2d, 0xc0, 0x31, 0xdc, 0xbd, 0x3d, 0xd0, 0xfc, 0x49, 0xc0, 0x40, 0x05, 0xa6, 0xc0, 0x74, 0x53, 0x1e, 0xbf, 0x59, 0x2f, 0x4b, 0xbf, 0xf5, 0xf1, 0xc9, 0xbe, 0x9c, 0xf1, 0x26, 0xbf, 0x58, 0x2f, 0x30, 0xc0, 0x04, 0xd9, 0xd9, 0xbd, 0xdd, 0x04, 0x01, 0xbf, 0x07, 0x65, 0x45, 0xc0, 0xf8, 0x2d, 0x6a, 0xc0, 0xde, 0x81, 0x57, 0xc0, 0xbe, 0xe3, 0x04, 0xbf, 0x3b, 0x06, 0x52, 0xc0, 0x93, 0xc7, 0x5d, 0xc0, 0xeb, 0x24, 0x67, 0xc0, 0xce, 0x81, 0x9f, 0xc0, 0x3e, 0x59, 0x77, 0xc0, 0xc4, 0xa8, 0xa4, 0xbe, 0x50, 0x26, 0x60, 0xc0, 0x55, 0xa2, 0x30, 0x3f, 0xb9, 0xda, 0x74, 0x3f, 0x58, 0xf6, 0x26, 0xc0, 0x45, 0x65, 0x50, 0xc0, 0xf5, 0x86, 0x14, 0xbf, 0x6f, 0xed, 0xe8, 0xbf, 0x20, 0x31, 0x4d, 0xc0, 0x8b, 0x70, 0xf7, 0x3e, 0xd7, 0x93, 0x87, 0xbf, 0xb4, 0xb8, 0x69, 0xc0, 0xcf, 0x19, 0x73, 0xc0, 0xba, 0xd8, 0xe6, 0xc0, 0x4d, 0x9e, 0x09, 0xbf, 0x11, 0x8b, 0xd9, 0xbf, 0xef, 0xc2, 0xbf, 0xbf, 0xd5, 0xee, 0x05, 0xc0, 0xed, 0x1f, 0x06, 0xc0, 0x15, 0xaf, 0xb1, 0xbf, 0x77, 0xb0, 0x2e, 0xbf, 0xd3, 0xc7, 0x62, 0xc0, 0x39, 0x70, 0x51, 0xc0, 0x54, 0xa1, 0x80, 0xc0, 0x6e, 0x80, 0x5f, 0xc0, 0x00, 0xb5, 0x30, 0xc0, 0xa1, 0x09, 0xf4, 0xbf, 0xa4, 0x7d, 0x7f, 0xc0, 0xb8, 0x2d, 0x3a, 0xc0, 0x78, 0xa3, 0x5c, 0xc0, 0x34, 0xdf, 0x99, 0xc0, 0x56, 0x60, 0xe1, 0xbf, 0x9a, 0x13, 0x46, 0xbf, 0x35, 0x67, 0x31, 0xbf, 0x02, 0x46, 0x4a, 0x3f, 0xe8, 0x7b, 0x53, 0xbf, 0x9b, 0x28, 0xa8, 0xbf, 0x14, 0x2a, 0x8d, 0x3e, 0x63, 0x10, 0xa7, 0xbe, 0x52, 0x70, 0xa3, 0xbe, 0x4c, 0x74, 0xb1, 0xbe, 0x46, 0xff, 0x33, 0xbf, 0x5b, 0x1c, 0xe5, 0xbe, 0x07, 0x61, 0xc5, 0xbf, 0x18, 0x3e, 0x8e, 0xbf, 0x29, 0xed, 0x5e, 0xbf, 0x8c, 0xc1, 0x02, 0xc0, 0xd8, 0x8a, 0x7d, 0xbf, 0xb8, 0x19, 0x9c, 0xbe, 0xed, 0xd7, 0x85, 0xbf, 0x3d, 0x6d, 0xb4, 0xbe, 0x1f, 0xb2, 0xe0, 0xbf, 0x4d, 0xaa, 0x86, 0xbf, 0x58, 0x59, 0x04, 0xc0, 0x02, 0x8f, 0x05, 0x3f, 0x83, 0x3f, 0x59, 0x3e, 0x51, 0x91, 0x2a, 0xbf, 0x2f, 0x69, 0x94, 0xbe, 0x11, 0x88, 0x13, 0xbf, 0xad, 0xa8, 0x44, 0xbf, 0x37, 0x36, 0x0e, 0xbf, 0x9f, 0xdc, 0x56, 0xbf, 0x08, 0x37, 0x41, 0xbf, 0xc0, 0xba, 0xd5, 0xbf, 0xf1, 0xbe, 0x55, 0xbf, 0x77, 0x3c, 0xca, 0xbf, 0x49, 0xd5, 0xa3, 0xbe, 0x91, 0xf3, 0x34, 0xbf, 0xcf, 0xc7, 0xe2, 0xbe, 0x00, 0x38, 0x91, 0xbf, 0x13, 0x2e, 0x3d, 0xbf, 0xfe, 0x72, 0xdd, 0xbf, 0xd3, 0x1b, 0x57, 0xbf, 0x05, 0xf0, 0xd1, 0xbf, 0xbc, 0x45, 0x95, 0xbe, 0x31, 0x60, 0x35, 0xbf, 0x43, 0xbc, 0xde, 0xbe, 0x4f, 0x1b, 0x54, 0xbf, 0x6e, 0x89, 0x08, 0xbf, 0xa1, 0xc8, 0x29, 0xbf, 0x80, 0x1b, 0x32, 0xbf, 0x7c, 0x0f, 0x4c, 0xbf, 0xe5, 0x04, 0x9d, 0xbe, 0xde, 0xc2, 0x28, 0x3e, 0x99, 0x00, 0x32, 0x40, 0x3c, 0x29, 0x57, 0xbf, 0x6c, 0xeb, 0x10, 0xbe, 0x5a, 0x51, 0xe4, 0xbe, 0x51, 0x31, 0x0f, 0xc0, 0x23, 0x64, 0xd3, 0xbf, 0x1f, 0xd4, 0x27, 0x3f, 0x87, 0x33, 0x6f, 0xc0, 0x47, 0x28, 0x4e, 0xc0, 0xfb, 0xf1, 0x64, 0xc0, 0x89, 0x0f, 0x68, 0xc0, 0xf8, 0x6b, 0x64, 0x40, 0xb4, 0xf6, 0x14, 0x3f, 0x2d, 0xeb, 0x84, 0xbe, 0x00, 0x5c, 0xc3, 0xbf, 0x50, 0x01, 0xdf, 0xbf, 0xd3, 0xaf, 0x6b, 0xc0, 0xf1, 0x45, 0x81, 0xc0, 0x04, 0xa2, 0x3a, 0xbf, 0x5f, 0x11, 0x16, 0xc0, 0xe8, 0xe4, 0x79, 0xc0, 0x66, 0xab, 0x09, 0xbf, 0x4a, 0x90, 0x84, 0xbf, 0xeb, 0xa6, 0x42, 0xc0, 0xbb, 0xa9, 0x1c, 0x40, 0x09, 0xce, 0x35, 0xc0, 0xb2, 0x0a, 0x9c, 0xbe, 0xa4, 0x52, 0xd5, 0xbe, 0x0b, 0xc9, 0x3b, 0xbf, 0xcb, 0xf0, 0x76, 0xc0, 0x14, 0x6b, 0x87, 0xc0, 0x84, 0xdc, 0x18, 0xbf, 0xd5, 0x6f, 0x12, 0x3f, 0xca, 0xe8, 0xd9, 0xbe, 0x5f, 0xde, 0x75, 0xc0, 0x59, 0x87, 0x96, 0xbe, 0xaa, 0x21, 0xfc, 0x3f, 0xdd, 0x3b, 0x87, 0xc0, 0x9a, 0x8d, 0x7c, 0xc0, 0xf0, 0xe2, 0x36, 0xc0, 0x0d, 0xd9, 0x34, 0xbf, 0x03, 0xdb, 0x8f, 0x40, 0x4c, 0xaf, 0x91, 0xc0, 0x62, 0x6d, 0x4c, 0xc0, 0x90, 0xda, 0x2f, 0xbf, 0xac, 0xdf, 0xb8, 0xbe, 0xcb, 0x0d, 0x4c, 0xbf, 0x50, 0xa2, 0x4a, 0x3f, 0xd5, 0x79, 0xf4, 0xbd, 0x96, 0x38, 0x8a, 0x3f, 0x8b, 0x69, 0x0d, 0xbf, 0x99, 0xc5, 0xae, 0x3d, 0x4f, 0xab, 0x30, 0xbe, 0x12, 0x9c, 0x0d, 0xc0, 0x88, 0x15, 0xdd, 0xbe, 0xec, 0xb5, 0x28, 0x3e, 0x70, 0xbb, 0xd4, 0x3d, 0x48, 0xd1, 0x08, 0xbf, 0xab, 0xb4, 0x73, 0xbe, 0x02, 0xaf, 0x54, 0xbf, 0xfd, 0xc4, 0x16, 0xbf, 0x1d, 0x11, 0x10, 0xbe, 0x9e, 0x2a, 0x58, 0xbf, 0xd6, 0x85, 0x29, 0xbf, 0x22, 0xcc, 0x9d, 0x3c, 0x65, 0x88, 0x97, 0xbe, 0x83, 0xe7, 0x3b, 0x3f, 0x41, 0x41, 0x70, 0x3f, 0xf6, 0x8e, 0x5c, 0xbf, 0x67, 0x85, 0x28, 0x3f, 0xb6, 0xf7, 0x90, 0xbf, 0x9a, 0xe2, 0x14, 0xbf, 0xd1, 0xd5, 0x05, 0xbf, 0xa2, 0x69, 0x2a, 0xc0, 0x51, 0x75, 0xb7, 0xbf, 0x8a, 0x80, 0xa1, 0x3e, 0xe8, 0x01, 0xd1, 0x3d, 0xb2, 0x28, 0x9a, 0xbf, 0xd8, 0x5b, 0x3e, 0xbe, 0xe6, 0x73, 0x5e, 0x3f, 0x10, 0xd4, 0x4a, 0xbf, 0xa1, 0x75, 0x74, 0xbe, 0xac, 0xef, 0x18, 0xc0, 0xc1, 0x45, 0x3d, 0xc0, 0xbf, 0xb4, 0x0c, 0xbf, 0x36, 0xca, 0x3f, 0x3e, 0xd5, 0x1a, 0x39, 0x3f, 0x91, 0x2b, 0x40, 0xbe, 0xd8, 0x4a, 0x47, 0x3f, 0x7f, 0x59, 0xb3, 0x3c, 0x95, 0x0f, 0xc0, 0xbf, 0x16, 0xd6, 0xb1, 0xbf, 0xeb, 0xae, 0x2b, 0x3e, 0x95, 0x35, 0x1f, 0x3e, 0xf6, 0xe8, 0x85, 0x3f, 0x75, 0x46, 0xfa, 0x3d, 0x69, 0x65, 0x13, 0xbf, 0x95, 0x73, 0xc4, 0xbe, 0xf4, 0x85, 0xbf, 0xbe, 0x7d, 0xb9, 0x66, 0xbf, 0xb4, 0x84, 0x0c, 0xbf, 0xb1, 0xe3, 0x81, 0x3e, 0x04, 0xb1, 0x1f, 0xbf, 0x11, 0xe9, 0x4c, 0xbe, 0x07, 0x91, 0xfb, 0xbe, 0x14, 0x03, 0x4a, 0xbf, 0x6e, 0x46, 0xbf, 0xbe, 0x54, 0x98, 0x0b, 0xbf, 0x96, 0xcb, 0xaf, 0xbe, 0x0d, 0xf5, 0x5d, 0xbe, 0xbd, 0x26, 0x8c, 0xbf, 0xb6, 0xf7, 0x59, 0x40, 0x58, 0x19, 0x80, 0xbe, 0x39, 0x24, 0xd5, 0xbf, 0xce, 0x7e, 0x99, 0xbd, 0x9d, 0xa3, 0xe1, 0xbe, 0x76, 0x81, 0x17, 0xbe, 0x69, 0x31, 0x90, 0xba, 0x95, 0x09, 0x1e, 0xbf, 0x05, 0x3b, 0xf1, 0xbf, 0xf0, 0x60, 0xf8, 0xbe, 0xbf, 0x40, 0xb1, 0xbf, 0xb7, 0x86, 0xb1, 0x3e, 0x1e, 0x51, 0xc9, 0xbe, 0x6f, 0xfb, 0x0d, 0xc0, 0xb3, 0x96, 0x3c, 0xbf, 0x49, 0x7f, 0x2a, 0xbe, 0xdd, 0x20, 0x23, 0xbf, 0xcf, 0x63, 0xf1, 0xbe, 0x47, 0x1b, 0x68, 0xbe, 0x27, 0xb1, 0xdc, 0xbe, 0x24, 0x7d, 0x83, 0xc0, 0x52, 0x00, 0x35, 0xbf, 0xac, 0x88, 0xba, 0xbe, 0x59, 0x65, 0xfb, 0xbe, 0xfb, 0x6e, 0x14, 0xbf, 0x37, 0x10, 0x91, 0xbe, 0xec, 0x9c, 0x76, 0xbf, 0x0c, 0x48, 0x18, 0xbf, 0x12, 0x04, 0xde, 0xbe, 0xed, 0x64, 0x93, 0xbe, 0x7e, 0x50, 0x9d, 0xbd, 0x06, 0x19, 0x1b, 0xbf, 0x8f, 0xef, 0x78, 0xbf, 0x1e, 0xff, 0x12, 0xbf, 0x60, 0x57, 0xee, 0xbe, 0x43, 0x14, 0x80, 0xbe, 0x1c, 0x23, 0xd0, 0xbe, 0xa4, 0x17, 0x3c, 0x3e, 0x04, 0xf4, 0x6d, 0xc0, 0x02, 0x3f, 0xff, 0xbd, 0xaa, 0x26, 0xe6, 0xbe, 0x2f, 0xd2, 0x33, 0xbf, 0x66, 0x3c, 0x4d, 0xc0, 0xce, 0x76, 0x21, 0xbf, 0x3d, 0x47, 0x1e, 0x3e, 0xfc, 0xff, 0x00, 0x3f, 0x56, 0x76, 0x73, 0xbf, 0x55, 0xc4, 0x41, 0xc0, 0x48, 0xb7, 0x4a, 0xbf, 0x27, 0xcc, 0x58, 0xbf, 0xb6, 0x06, 0x16, 0xbf, 0x78, 0x36, 0x1b, 0xbf, 0x78, 0x37, 0x5a, 0xbf, 0xc9, 0x3b, 0x7a, 0xbf, 0x97, 0x6c, 0xdd, 0xbe, 0x08, 0xb7, 0x9c, 0xbf, 0x7d, 0x43, 0xb6, 0xbf, 0xa6, 0x19, 0x31, 0xc0, 0x06, 0xf5, 0x4d, 0xc0, 0x18, 0xf0, 0x71, 0xbf, 0xa7, 0x6b, 0x2b, 0xbf, 0x37, 0x7e, 0x43, 0xbf, 0xba, 0x63, 0x29, 0xbf, 0x45, 0xbf, 0x0c, 0xbf, 0x1b, 0x3e, 0x29, 0xbf, 0xc9, 0xb6, 0xc9, 0xbd, 0xa5, 0x1e, 0x2e, 0xbf, 0x17, 0xd9, 0x57, 0xbf, 0x26, 0x38, 0x8a, 0xbf, 0xdd, 0x80, 0x33, 0xc0, 0x2f, 0xa0, 0x6a, 0xbf, 0x9c, 0x7f, 0x61, 0xc0, 0x28, 0x86, 0x95, 0xbe, 0x81, 0xce, 0x63, 0xbf, 0xbf, 0xae, 0x1e, 0xc0, 0xcc, 0xbe, 0x4f, 0xbf, 0x43, 0xd7, 0xa8, 0xbe, 0x1e, 0xe3, 0x55, 0xbf, 0xea, 0xf4, 0x2d, 0xbf, 0x7e, 0xe8, 0xed, 0xbe, 0xad, 0x1e, 0x01, 0x3e, 0x2d, 0xe1, 0x40, 0x40, 0x4f, 0x3f, 0x6b, 0xbe, 0xd9, 0xc0, 0x18, 0xbf, 0x6a, 0x48, 0x00, 0x40, 0xf3, 0xe6, 0x09, 0x40, 0x4a, 0x47, 0x06, 0x40, 0x9f, 0x48, 0x97, 0xbe, 0x2e, 0xfe, 0x34, 0x3e, 0xfb, 0xe7, 0x17, 0x40, 0xd3, 0xad, 0x25, 0x40, 0x8f, 0x99, 0x1e, 0x3d, 0xa0, 0xc2, 0x59, 0x3f, 0x3f, 0xf3, 0x13, 0x3f, 0x28, 0x51, 0x03, 0x40, 0x83, 0x23, 0x7c, 0x40, 0x61, 0xe6, 0xaa, 0x40, 0xb0, 0x1e, 0x07, 0x40, 0xd8, 0xd5, 0x81, 0xbf, 0x84, 0x06, 0x88, 0x3f, 0x56, 0x8b, 0x0a, 0x41, 0xdb, 0x87, 0xa0, 0x3e, 0x80, 0x6a, 0x3c, 0x3f, 0x19, 0x57, 0x0d, 0xbf, 0xa8, 0x61, 0x2d, 0x40, 0xdc, 0x44, 0x0c, 0x40, 0xf0, 0x22, 0x42, 0xc0, 0xf1, 0xe1, 0x9a, 0xbe, 0xe9, 0xa1, 0x3d, 0xbf, 0x54, 0x26, 0x28, 0x40, 0xdb, 0x5c, 0x0d, 0x41, 0xf6, 0xd1, 0x18, 0xc0, 0x4b, 0x5b, 0x0f, 0x3e, 0xd6, 0x40, 0x82, 0x3e, 0xf8, 0x3f, 0x14, 0x40, 0x04, 0xbd, 0x85, 0xc0, 0x2f, 0xfa, 0xd8, 0xbf, 0x32, 0xcd, 0x33, 0x40, 0xee, 0x13, 0x06, 0xc0, 0xa3, 0x8e, 0x13, 0x41, 0x2c, 0x65, 0xdf, 0xbd, 0xfe, 0x48, 0x38, 0x40, 0xab, 0xb0, 0xb2, 0x3f, 0x81, 0xc0, 0x9a, 0x3f, 0x72, 0x9a, 0xb4, 0xbf, 0xd8, 0x1c, 0x35, 0x3e, 0x4c, 0xe7, 0x9d, 0x3d, 0x0e, 0x7c, 0x0b, 0xbe, 0x17, 0xb8, 0x07, 0xbf, 0x8a, 0xe0, 0xc7, 0x3d, 0x4e, 0x34, 0x81, 0xbf, 0x32, 0xdd, 0xde, 0xbe, 0xf3, 0xd6, 0x5e, 0x40, 0x02, 0xaa, 0x37, 0x3e, 0x98, 0xec, 0x2a, 0x40, 0x5e, 0xdc, 0x1e, 0xbf, 0x27, 0x76, 0x06, 0xbf, 0xff, 0xd8, 0x61, 0xbf, 0x07, 0x3a, 0x5a, 0x40, 0xb2, 0x79, 0x8f, 0x3f, 0x8d, 0x55, 0x85, 0xbf, 0x2d, 0xeb, 0x64, 0xbf, 0xf4, 0x66, 0x80, 0xbf, 0xd1, 0x7f, 0xee, 0xbd, 0x73, 0xcd, 0x2c, 0x3e, 0xb1, 0xea, 0x14, 0xbf, 0x28, 0xa9, 0xdb, 0xbf, 0x27, 0x14, 0xce, 0xbf, 0x28, 0x86, 0x79, 0xbe, 0xf3, 0x64, 0x13, 0xbf, 0x9a, 0x0a, 0x26, 0x3f, 0x6b, 0x58, 0x18, 0x3f, 0xa6, 0xfe, 0x83, 0xbf, 0xb5, 0xd5, 0x23, 0xbf, 0x34, 0x3f, 0x7d, 0xc0, 0xbc, 0x05, 0x81, 0x3e, 0xe1, 0x74, 0x12, 0xc0, 0x0d, 0xb4, 0xf7, 0xbe, 0xe0, 0x0b, 0xcd, 0xbe, 0x4f, 0xb0, 0x7a, 0xc0, 0x43, 0xcd, 0x1f, 0xbf, 0xc8, 0xcb, 0x83, 0xbf, 0x57, 0x3b, 0xe8, 0xbe, 0x35, 0x64, 0xc3, 0x40, 0x4b, 0x83, 0x8b, 0xc0, 0x6b, 0xfd, 0xdc, 0xbe, 0x94, 0x98, 0xf5, 0xbd, 0x33, 0x1d, 0x60, 0x40, 0x59, 0x90, 0x93, 0xbf, 0x64, 0xa9, 0x4c, 0x40, 0x21, 0x65, 0x54, 0x3f, 0xb7, 0xc0, 0x84, 0xbf, 0xe7, 0xf7, 0x9a, 0xbf, 0xff, 0xb5, 0xa6, 0xbe, 0x8c, 0xcc, 0xb5, 0xbe, 0x2b, 0x02, 0xef, 0xbe, 0x6f, 0x4c, 0x68, 0x3f, 0x1e, 0xb7, 0x49, 0x40, 0x0e, 0xca, 0x27, 0x3f, 0x22, 0x88, 0x3d, 0xbf, 0x31, 0x42, 0xe8, 0xbf, 0xa7, 0xb9, 0x14, 0xc0, 0xa3, 0xdb, 0x26, 0x40, 0xcc, 0x61, 0x3d, 0xbf, 0xc7, 0x3a, 0x6d, 0x40, 0x0c, 0x25, 0x9b, 0xbf, 0x02, 0x06, 0x14, 0x40, 0xe6, 0x06, 0xd4, 0xbe, 0xc7, 0x8b, 0x01, 0x40, 0x9f, 0xca, 0x55, 0xbf, 0x8d, 0xd5, 0x51, 0x40, 0xa4, 0x92, 0x9a, 0xc0, 0x7c, 0x20, 0x83, 0xbf, 0xe9, 0x4b, 0x31, 0x40, 0xf8, 0xec, 0xd9, 0xbe, 0x4b, 0x07, 0x4e, 0xbd, 0x16, 0xd2, 0x88, 0xbf, 0x69, 0x63, 0x6e, 0xbf, 0xf1, 0x58, 0xcb, 0x3e, 0xbe, 0xbc, 0xae, 0xbe, 0x90, 0x25, 0xb4, 0xbd, 0x38, 0xa0, 0x2a, 0x40, 0x3b, 0xb7, 0x5c, 0xc0, 0x4e, 0x83, 0x82, 0xbf, 0xa9, 0x6c, 0x1f, 0x3f, 0xe9, 0x5d, 0xa4, 0x40, 0xd5, 0x96, 0x31, 0x40, 0xdb, 0x15, 0x9f, 0x3d, 0xd2, 0x14, 0x80, 0x3f, 0x55, 0xac, 0x60, 0xbf, 0xe2, 0x40, 0x55, 0x40, 0xef, 0x5d, 0xe8, 0xbf, 0xb8, 0x37, 0x2d, 0xc0, 0xfc, 0x28, 0x26, 0x40, 0x6c, 0xe0, 0xe3, 0xbf, 0x35, 0x11, 0x70, 0x40, 0x7b, 0xa6, 0xd4, 0xbf, 0xe2, 0x58, 0xf7, 0x3d, 0xb2, 0xda, 0x2d, 0x40, 0xb5, 0x35, 0xb4, 0xc0, 0xa8, 0xb1, 0xa1, 0xc0, 0xb2, 0xcb, 0x8c, 0x3e, 0xe6, 0x74, 0x35, 0x3d, 0x91, 0xcd, 0x38, 0x3f, 0x05, 0x59, 0x8f, 0x3e, 0x87, 0xe4, 0x6c, 0x3f, 0x51, 0x03, 0x8d, 0xbe, 0x61, 0x7a, 0x13, 0xbd, 0x15, 0xaf, 0x1d, 0xc0, 0xe8, 0x3a, 0x75, 0x40, 0xe2, 0x50, 0x71, 0xbe, 0x80, 0x02, 0x58, 0x3e, 0x73, 0xd1, 0x72, 0xbe, 0xe4, 0x7a, 0xfe, 0x3f, 0x77, 0x5a, 0x65, 0x3e, 0xd2, 0x70, 0xd9, 0x3f, 0x41, 0x40, 0x7d, 0x3e, 0x80, 0x3e, 0xf9, 0x3e, 0x2d, 0x6b, 0x19, 0xc0, 0xf6, 0x34, 0xdc, 0xbf, 0x31, 0xc0, 0x17, 0xc0, 0xb5, 0x12, 0x52, 0xc0, 0xee, 0x47, 0x08, 0xbf, 0x31, 0x96, 0x94, 0xbf, 0x38, 0x76, 0xd5, 0xbf, 0xf5, 0x1d, 0x40, 0x3f, 0xdb, 0x43, 0xdf, 0xbe, 0x38, 0x24, 0x25, 0xbf, 0x3b, 0x57, 0x37, 0x3e, 0x00, 0x19, 0xec, 0x3e, 0xe4, 0x06, 0xad, 0xc0, 0xe5, 0x67, 0xa5, 0xbd, 0x93, 0x70, 0x8c, 0xbf, 0x8a, 0x9f, 0x9e, 0x3f, 0x21, 0x36, 0xc0, 0xc0, 0x58, 0x27, 0xe4, 0xc0, 0xd9, 0x9a, 0xf2, 0x3e, 0x89, 0x2e, 0x24, 0xbe, 0x60, 0x79, 0x89, 0xc0, 0xe8, 0x74, 0xdc, 0xc0, 0xe0, 0x40, 0x07, 0xc0, 0x8d, 0xfd, 0x23, 0x3f, 0x3f, 0x20, 0xaf, 0x3e, 0xa5, 0xbf, 0x97, 0x3d, 0x80, 0x49, 0x8e, 0x40, 0xde, 0x92, 0x7b, 0x3f, 0x4e, 0xf2, 0xa3, 0x3e, 0xdd, 0x7a, 0x07, 0xc0, 0x32, 0x65, 0x48, 0xc0, 0x48, 0x0f, 0x85, 0x3e, 0x2a, 0x4f, 0xc5, 0x3c, 0x32, 0x4d, 0xd6, 0x3d, 0xce, 0x48, 0xe8, 0xbe, 0x43, 0xe8, 0x65, 0xc0, 0xad, 0x3b, 0x9c, 0xbf, 0xf4, 0x21, 0x0e, 0x3e, 0x31, 0xd0, 0xfc, 0x3d, 0x15, 0x7c, 0x71, 0x3f, 0x7d, 0x65, 0xec, 0xbf, 0x89, 0x81, 0x16, 0x3f, 0x36, 0xaf, 0x9b, 0xbe, 0x16, 0xd2, 0xe7, 0xbe, 0x49, 0xc1, 0x43, 0xc0, 0xef, 0x5c, 0x9f, 0x3d, 0x6b, 0x5d, 0x56, 0xbf, 0x29, 0xfc, 0x34, 0x3f, 0x60, 0xb6, 0x4d, 0xbf, 0xaf, 0xca, 0x62, 0xc0, 0xf6, 0x92, 0xf7, 0xbe, 0x98, 0xba, 0xd4, 0xbe, 0x43, 0xc2, 0xcb, 0xbe, 0xe4, 0xf4, 0x25, 0xbf, 0xb0, 0x82, 0x73, 0xbf, 0x1b, 0xf7, 0x1d, 0xbf, 0x80, 0xfe, 0xed, 0xbe, 0xad, 0x7b, 0x93, 0xbf, 0x15, 0x46, 0xf4, 0x3e, 0xe4, 0xc1, 0x2e, 0xc0, 0xc6, 0xe8, 0x5b, 0xc0, 0x7b, 0xc8, 0x11, 0xbe, 0x53, 0x6a, 0x4c, 0xbf, 0x8c, 0x04, 0xd0, 0xbe, 0x2f, 0x2a, 0xfb, 0xbe, 0x5b, 0x61, 0x40, 0xbf, 0x69, 0x82, 0x23, 0xbf, 0xa9, 0x68, 0xab, 0x3e, 0xc8, 0x50, 0x16, 0xbf, 0x84, 0xf1, 0x08, 0xc0, 0xc6, 0xd6, 0x13, 0xbf, 0x80, 0x2f, 0x32, 0xc0, 0x44, 0xb4, 0x6b, 0xc0, 0x9f, 0xf9, 0x7e, 0xc0, 0xd3, 0xb8, 0xa3, 0xbc, 0xdd, 0x47, 0x13, 0xbf, 0x0f, 0x91, 0xfa, 0xbf, 0x11, 0x9e, 0xd2, 0xbe, 0x14, 0x66, 0x3c, 0xc0, 0xe4, 0x32, 0xa4, 0xbe, 0x0d, 0xa0, 0xdf, 0xbe, 0x13, 0x97, 0x34, 0xbf, 0xa3, 0x8e, 0xf0, 0xbe, 0x2a, 0x74, 0xde, 0x3f, 0xcc, 0x03, 0xf7, 0xbe, 0x5f, 0x2a, 0xdd, 0xbe, 0xbb, 0x1e, 0x0f, 0xbe, 0x33, 0x45, 0x95, 0x3e, 0xa3, 0xd8, 0x98, 0xbf, 0x1c, 0x1c, 0x81, 0xbe, 0x84, 0x18, 0x34, 0xbf, 0x63, 0x28, 0x74, 0x3e, 0xfa, 0x51, 0x2b, 0xbf, 0x7e, 0x90, 0x76, 0xc0, 0x32, 0x6a, 0x59, 0x40, 0x12, 0xa0, 0xa2, 0x3e, 0xd5, 0x15, 0x25, 0xbf, 0xdc, 0xf5, 0x31, 0xc0, 0xe3, 0xf7, 0x84, 0xc0, 0xbd, 0xc1, 0x84, 0xbf, 0x95, 0x1b, 0x68, 0xc0, 0x57, 0x88, 0xec, 0xbe, 0x5e, 0xea, 0x7f, 0xc0, 0x98, 0x8b, 0xa9, 0xbf, 0xf6, 0x72, 0x96, 0xbf, 0x6b, 0x4e, 0x64, 0xbf, 0x97, 0x53, 0xd4, 0xbe, 0xf7, 0x8d, 0xbc, 0xbf, 0x29, 0xcc, 0x0d, 0xc0, 0x9c, 0x65, 0xa5, 0xbf, 0x80, 0x07, 0xfd, 0xbe, 0xb2, 0xc5, 0x52, 0xbf, 0x60, 0x68, 0x5b, 0xbf, 0xe2, 0x38, 0x5c, 0xbf, 0x49, 0x30, 0x91, 0xbf, 0x83, 0xda, 0xe8, 0x3b, 0xe1, 0x46, 0x5e, 0xbf, 0x38, 0x5a, 0xa2, 0xbf, 0x98, 0x6f, 0x47, 0xc0, 0xe3, 0xd4, 0xa3, 0xbf, 0xd8, 0x5c, 0x21, 0x40, 0x9a, 0x07, 0xfe, 0xbf, 0x58, 0x94, 0x1a, 0xbe, 0xb0, 0xd9, 0xb1, 0xbe, 0x04, 0xb0, 0x4b, 0x40, 0x37, 0x56, 0x87, 0xc0, 0x0a, 0x38, 0x29, 0xc0, 0xff, 0x33, 0x41, 0xbf, 0x5e, 0x5b, 0x61, 0xbf, 0xc3, 0xd5, 0x8d, 0xbf, 0x00, 0x00, 0x06, 0x00, 0x08, 0x00, 0x04, 0x00, 0x06, 0x00, 0x00, 0x00, 0x04, 0x00, 0x00, 0x00, 0x40, 0x00, 0x00, 0x00, 0xf5, 0xa5, 0x47, 0xc0, 0x97, 0x79, 0x38, 0x3f, 0xb0, 0x15, 0x19, 0xbf, 0x03, 0x8f, 0x48, 0xc0, 0xb8, 0x0c, 0xd4, 0xbf, 0xfc, 0xda, 0x01, 0x3f, 0x42, 0x77, 0x22, 0xc0, 0x29, 0x19, 0x28, 0x40, 0x05, 0x18, 0xbf, 0xbe, 0xdc, 0xe5, 0x2b, 0x40, 0xd5, 0x79, 0x3a, 0xbf, 0x74, 0xdb, 0xe7, 0xbf, 0x6f, 0x17, 0xdb, 0xbf, 0xf0, 0x2e, 0xba, 0xbe, 0xff, 0x77, 0x37, 0xc0, 0xe3, 0x38, 0xf3, 0x3f, 0x78, 0xfa, 0xff, 0xff, 0x7c, 0xfa, 0xff, 0xff, 0x0f, 0x00, 0x00, 0x00, 0x4d, 0x4c, 0x49, 0x52, 0x20, 0x43, 0x6f, 0x6e, 0x76, 0x65, 0x72, 0x74, 0x65, 0x64, 0x2e, 0x00, 0x01, 0x00, 0x00, 0x00, 0x14, 0x00, 0x00, 0x00, 0x00, 0x00, 0x0e, 0x00, 0x18, 0x00, 0x14, 0x00, 0x10, 0x00, 0x0c, 0x00, 0x08, 0x00, 0x04, 0x00, 0x0e, 0x00, 0x00, 0x00, 0x14, 0x00, 0x00, 0x00, 0x1c, 0x00, 0x00, 0x00, 0x08, 0x01, 0x00, 0x00, 0x0c, 0x01, 0x00, 0x00, 0x10, 0x01, 0x00, 0x00, 0x04, 0x00, 0x00, 0x00, 0x6d, 0x61, 0x69, 0x6e, 0x00, 0x00, 0x00, 0x00, 0x04, 0x00, 0x00, 0x00, 0xb0, 0x00, 0x00, 0x00, 0x68, 0x00, 0x00, 0x00, 0x34, 0x00, 0x00, 0x00, 0x10, 0x00, 0x00, 0x00, 0x00, 0x00, 0x0a, 0x00, 0x10, 0x00, 0x0c, 0x00, 0x08, 0x00, 0x04, 0x00, 0x0a, 0x00, 0x00, 0x00, 0x0c, 0x00, 0x00, 0x00, 0x10, 0x00, 0x00, 0x00, 0x01, 0x00, 0x00, 0x00, 0x01, 0x00, 0x00, 0x00, 0x0a, 0x00, 0x00, 0x00, 0x01, 0x00, 0x00, 0x00, 0x09, 0x00, 0x00, 0x00, 0x9a, 0xff, 0xff, 0xff, 0x10, 0x00, 0x00, 0x00, 0x00, 0x00, 0x00, 0x08, 0x0c, 0x00, 0x00, 0x00, 0x10, 0x00, 0x00, 0x00, 0x24, 0xfb, 0xff, 0xff, 0x01, 0x00, 0x00, 0x00, 0x09, 0x00, 0x00, 0x00, 0x03, 0x00, 0x00, 0x00, 0x08, 0x00, 0x00, 0x00, 0x01, 0x00, 0x00, 0x00, 0x03, 0x00, 0x00, 0x00, 0xca, 0xff, 0xff, 0xff, 0x10, 0x00, 0x00, 0x00, 0x00, 0x00, 0x00, 0x08, 0x10, 0x00, 0x00, 0x00, 0x14, 0x00, 0x00, 0x00, 0xba, 0xff, 0xff, 0xff, 0x00, 0x00, 0x00, 0x01, 0x01, 0x00, 0x00, 0x00, 0x08, 0x00, 0x00, 0x00, 0x03, 0x00, 0x00, 0x00, 0x07, 0x00, 0x00, 0x00, 0x02, 0x00, 0x00, 0x00, 0x04, 0x00, 0x00, 0x00, 0x00, 0x00, 0x0e, 0x00, 0x16, 0x00, 0x00, 0x00, 0x10, 0x00, 0x0c, 0x00, 0x0b, 0x00, 0x04, 0x00, 0x0e, 0x00, 0x00, 0x00, 0x18, 0x00, 0x00, 0x00, 0x00, 0x00, 0x00, 0x08, 0x18, 0x00, 0x00, 0x00, 0x1c, 0x00, 0x00, 0x00, 0x00, 0x00, 0x06, 0x00, 0x08, 0x00, 0x07, 0x00, 0x06, 0x00, 0x00, 0x00, 0x00, 0x00, 0x00, 0x01, 0x01, 0x00, 0x00, 0x00, 0x07, 0x00, 0x00, 0x00, 0x03, 0x00, 0x00, 0x00, 0x00, 0x00, 0x00, 0x00, 0x06, 0x00, 0x00, 0x00, 0x05, 0x00, 0x00, 0x00, 0x01, 0x00, 0x00, 0x00, 0x0a, 0x00, 0x00, 0x00, 0x01, 0x00, 0x00, 0x00, 0x00, 0x00, 0x00, 0x00, 0x0b, 0x00, 0x00, 0x00, 0x04, 0x04, 0x00, 0x00, 0xac, 0x03, 0x00, 0x00, 0x54, 0x03, 0x00, 0x00, 0x18, 0x03, 0x00, 0x00, 0xdc, 0x02, 0x00, 0x00, 0x7c, 0x02, 0x00, 0x00, 0x28, 0x02, 0x00, 0x00, 0x84, 0x01, 0x00, 0x00, 0xe0, 0x00, 0x00, 0x00, 0x60, 0x00, 0x00, 0x00, 0x04, 0x00, 0x00, 0x00, 0x3e, 0xfc, 0xff, 0xff, 0x00, 0x00, 0x00, 0x01, 0x14, 0x00, 0x00, 0x00, 0x1c, 0x00, 0x00, 0x00, 0x1c, 0x00, 0x00, 0x00, 0x0b, 0x00, 0x00, 0x00, 0x34, 0x00, 0x00, 0x00, 0x02, 0x00, 0x00, 0x00, 0xff, 0xff, 0xff, 0xff, 0x01, 0x00, 0x00, 0x00, 0x28, 0xfc, 0xff, 0xff, 0x1b, 0x00, 0x00, 0x00, 0x53, 0x74, 0x61, 0x74, 0x65, 0x66, 0x75, 0x6c, 0x50, 0x61, 0x72, 0x74, 0x69, 0x74, 0x69, 0x6f, 0x6e, 0x65, 0x64, 0x43, 0x61, 0x6c, 0x6c, 0x5f, 0x31, 0x3a, 0x30, 0x00, 0x02, 0x00, 0x00, 0x00, 0x01, 0x00, 0x00, 0x00, 0x01, 0x00, 0x00, 0x00, 0x96, 0xfc, 0xff, 0xff, 0x00, 0x00, 0x00, 0x01, 0x14, 0x00, 0x00, 0x00, 0x1c, 0x00, 0x00, 0x00, 0x1c, 0x00, 0x00, 0x00, 0x0a, 0x00, 0x00, 0x00, 0x58, 0x00, 0x00, 0x00, 0x02, 0x00, 0x00, 0x00, 0xff, 0xff, 0xff, 0xff, 0x01, 0x00, 0x00, 0x00, 0x80, 0xfc, 0xff, 0xff, 0x3e, 0x00, 0x00, 0x00, 0x73, 0x65, 0x71, 0x75, 0x65, 0x6e, 0x74, 0x69, 0x61, 0x6c, 0x5f, 0x38, 0x5f, 0x31, 0x2f, 0x64, 0x65, 0x6e, 0x73, 0x65, 0x5f, 0x32, 0x34, 0x5f, 0x31, 0x2f, 0x4d, 0x61, 0x74, 0x4d, 0x75, 0x6c, 0x3b, 0x73, 0x65, 0x71, 0x75, 0x65, 0x6e, 0x74, 0x69, 0x61, 0x6c, 0x5f, 0x38, 0x5f, 0x31, 0x2f, 0x64, 0x65, 0x6e, 0x73, 0x65, 0x5f, 0x32, 0x34, 0x5f, 0x31, 0x2f, 0x41, 0x64, 0x64, 0x00, 0x00, 0x02, 0x00, 0x00, 0x00, 0x01, 0x00, 0x00, 0x00, 0x01, 0x00, 0x00, 0x00, 0x12, 0xfd, 0xff, 0xff, 0x00, 0x00, 0x00, 0x01, 0x14, 0x00, 0x00, 0x00, 0x1c, 0x00, 0x00, 0x00, 0x1c, 0x00, 0x00, 0x00, 0x09, 0x00, 0x00, 0x00, 0x7c, 0x00, 0x00, 0x00, 0x02, 0x00, 0x00, 0x00, 0xff, 0xff, 0xff, 0xff, 0x10, 0x00, 0x00, 0x00, 0xfc, 0xfc, 0xff, 0xff, 0x61, 0x00, 0x00, 0x00, 0x73, 0x65, 0x71, 0x75, 0x65, 0x6e, 0x74, 0x69, 0x61, 0x6c, 0x5f, 0x38, 0x5f, 0x31, 0x2f, 0x64, 0x65, 0x6e, 0x73, 0x65, 0x5f, 0x32, 0x33, 0x5f, 0x31, 0x2f, 0x4d, 0x61, 0x74, 0x4d, 0x75, 0x6c, 0x3b, 0x73, 0x65, 0x71, 0x75, 0x65, 0x6e, 0x74, 0x69, 0x61, 0x6c, 0x5f, 0x38, 0x5f, 0x31, 0x2f, 0x64, 0x65, 0x6e, 0x73, 0x65, 0x5f, 0x32, 0x33, 0x5f, 0x31, 0x2f, 0x52, 0x65, 0x6c, 0x75, 0x3b, 0x73, 0x65, 0x71, 0x75, 0x65, 0x6e, 0x74, 0x69, 0x61, 0x6c, 0x5f, 0x38, 0x5f, 0x31, 0x2f, 0x64, 0x65, 0x6e, 0x73, 0x65, 0x5f, 0x32, 0x33, 0x5f, 0x31, 0x2f, 0x42, 0x69, 0x61, 0x73, 0x41, 0x64, 0x64, 0x00, 0x00, 0x00, 0x02, 0x00, 0x00, 0x00, 0x01, 0x00, 0x00, 0x00, 0x10, 0x00, 0x00, 0x00, 0xb2, 0xfd, 0xff, 0xff, 0x00, 0x00, 0x00, 0x01, 0x14, 0x00, 0x00, 0x00, 0x1c, 0x00, 0x00, 0x00, 0x1c, 0x00, 0x00, 0x00, 0x08, 0x00, 0x00, 0x00, 0x7c, 0x00, 0x00, 0x00, 0x02, 0x00, 0x00, 0x00, 0xff, 0xff, 0xff, 0xff, 0x30, 0x00, 0x00, 0x00, 0x9c, 0xfd, 0xff, 0xff, 0x61, 0x00, 0x00, 0x00, 0x73, 0x65, 0x71, 0x75, 0x65, 0x6e, 0x74, 0x69, 0x61, 0x6c, 0x5f, 0x38, 0x5f, 0x31, 0x2f, 0x64, 0x65, 0x6e, 0x73, 0x65, 0x5f, 0x32, 0x32, 0x5f, 0x31, 0x2f, 0x4d, 0x61, 0x74, 0x4d, 0x75, 0x6c, 0x3b, 0x73, 0x65, 0x71, 0x75, 0x65, 0x6e, 0x74, 0x69, 0x61, 0x6c, 0x5f, 0x38, 0x5f, 0x31, 0x2f, 0x64, 0x65, 0x6e, 0x73, 0x65, 0x5f, 0x32, 0x32, 0x5f, 0x31, 0x2f, 0x52, 0x65, 0x6c, 0x75, 0x3b, 0x73, 0x65, 0x71, 0x75, 0x65, 0x6e, 0x74, 0x69, 0x61, 0x6c, 0x5f, 0x38, 0x5f, 0x31, 0x2f, 0x64, 0x65, 0x6e, 0x73, 0x65, 0x5f, 0x32, 0x32, 0x5f, 0x31, 0x2f, 0x42, 0x69, 0x61, 0x73, 0x41, 0x64, 0x64, 0x00, 0x00, 0x00, 0x02, 0x00, 0x00, 0x00, 0x01, 0x00, 0x00, 0x00, 0x30, 0x00, 0x00, 0x00, 0xa6, 0xfe, 0xff, 0xff, 0x00, 0x00, 0x00, 0x01, 0x10, 0x00, 0x00, 0x00, 0x10, 0x00, 0x00, 0x00, 0x07, 0x00, 0x00, 0x00, 0x30, 0x00, 0x00, 0x00, 0x2c, 0xfe, 0xff, 0xff, 0x20, 0x00, 0x00, 0x00, 0x73, 0x65, 0x71, 0x75, 0x65, 0x6e, 0x74, 0x69, 0x61, 0x6c, 0x5f, 0x38, 0x5f, 0x31, 0x2f, 0x64, 0x65, 0x6e, 0x73, 0x65, 0x5f, 0x32, 0x32, 0x5f, 0x31, 0x2f, 0x4d, 0x61, 0x74, 0x4d, 0x75, 0x6c, 0x00, 0x00, 0x00, 0x00, 0x02, 0x00, 0x00, 0x00, 0x30, 0x00, 0x00, 0x00, 0x03, 0x00, 0x00, 0x00, 0xf6, 0xfe, 0xff, 0xff, 0x00, 0x00, 0x00, 0x01, 0x10, 0x00, 0x00, 0x00, 0x10, 0x00, 0x00, 0x00, 0x06, 0x00, 0x00, 0x00, 0x40, 0x00, 0x00, 0x00, 0x7c, 0xfe, 0xff, 0xff, 0x30, 0x00, 0x00, 0x00, 0x73, 0x65, 0x71, 0x75, 0x65, 0x6e, 0x74, 0x69, 0x61, 0x6c, 0x5f, 0x38, 0x5f, 0x31, 0x2f, 0x64, 0x65, 0x6e, 0x73, 0x65, 0x5f, 0x32, 0x32, 0x5f, 0x31, 0x2f, 0x42, 0x69, 0x61, 0x73, 0x41, 0x64, 0x64, 0x2f, 0x52, 0x65, 0x61, 0x64, 0x56, 0x61, 0x72, 0x69, 0x61, 0x62, 0x6c, 0x65, 0x4f, 0x70, 0x00, 0x00, 0x00, 0x00, 0x01, 0x00, 0x00, 0x00, 0x30, 0x00, 0x00, 0x00, 0x52, 0xff, 0xff, 0xff, 0x00, 0x00, 0x00, 0x01, 0x10, 0x00, 0x00, 0x00, 0x10, 0x00, 0x00, 0x00, 0x05, 0x00, 0x00, 0x00, 0x1c, 0x00, 0x00, 0x00, 0xd8, 0xfe, 0xff, 0xff, 0x0f, 0x00, 0x00, 0x00, 0x61, 0x72, 0x69, 0x74, 0x68, 0x2e, 0x63, 0x6f, 0x6e, 0x73, 0x74, 0x61, 0x6e, 0x74, 0x33, 0x00, 0x01, 0x00, 0x00, 0x00, 0x10, 0x00, 0x00, 0x00, 0x8a, 0xff, 0xff, 0xff, 0x00, 0x00, 0x00, 0x01, 0x10, 0x00, 0x00, 0x00, 0x10, 0x00, 0x00, 0x00, 0x04, 0x00, 0x00, 0x00, 0x1c, 0x00, 0x00, 0x00, 0x10, 0xff, 0xff, 0xff, 0x0f, 0x00, 0x00, 0x00, 0x61, 0x72, 0x69, 0x74, 0x68, 0x2e, 0x63, 0x6f, 0x6e, 0x73, 0x74, 0x61, 0x6e, 0x74, 0x32, 0x00, 0x01, 0x00, 0x00, 0x00, 0x01, 0x00, 0x00, 0x00, 0xc2, 0xff, 0xff, 0xff, 0x00, 0x00, 0x00, 0x01, 0x10, 0x00, 0x00, 0x00, 0x10, 0x00, 0x00, 0x00, 0x03, 0x00, 0x00, 0x00, 0x1c, 0x00, 0x00, 0x00, 0x48, 0xff, 0xff, 0xff, 0x0f, 0x00, 0x00, 0x00, 0x61, 0x72, 0x69, 0x74, 0x68, 0x2e, 0x63, 0x6f, 0x6e, 0x73, 0x74, 0x61, 0x6e, 0x74, 0x31, 0x00, 0x02, 0x00, 0x00, 0x00, 0x10, 0x00, 0x00, 0x00, 0x30, 0x00, 0x00, 0x00, 0x00, 0x00, 0x16, 0x00, 0x18, 0x00, 0x14, 0x00, 0x00, 0x00, 0x10, 0x00, 0x0c, 0x00, 0x08, 0x00, 0x00, 0x00, 0x00, 0x00, 0x00, 0x00, 0x07, 0x00, 0x16, 0x00, 0x00, 0x00, 0x00, 0x00, 0x00, 0x01, 0x10, 0x00, 0x00, 0x00, 0x10, 0x00, 0x00, 0x00, 0x02, 0x00, 0x00, 0x00, 0x1c, 0x00, 0x00, 0x00, 0x9c, 0xff, 0xff, 0xff, 0x0e, 0x00, 0x00, 0x00, 0x61, 0x72, 0x69, 0x74, 0x68, 0x2e, 0x63, 0x6f, 0x6e, 0x73, 0x74, 0x61, 0x6e, 0x74, 0x00, 0x00, 0x02, 0x00, 0x00, 0x00, 0x01, 0x00, 0x00, 0x00, 0x10, 0x00, 0x00, 0x00, 0x00, 0x00, 0x16, 0x00, 0x1c, 0x00, 0x18, 0x00, 0x00, 0x00, 0x14, 0x00, 0x10, 0x00, 0x0c, 0x00, 0x00, 0x00, 0x00, 0x00, 0x08, 0x00, 0x07, 0x00, 0x16, 0x00, 0x00, 0x00, 0x00, 0x00, 0x00, 0x01, 0x14, 0x00, 0x00, 0x00, 0x20, 0x00, 0x00, 0x00, 0x20, 0x00, 0x00, 0x00, 0x01, 0x00, 0x00, 0x00, 0x40, 0x00, 0x00, 0x00, 0x02, 0x00, 0x00, 0x00, 0xff, 0xff, 0xff, 0xff, 0x03, 0x00, 0x00, 0x00, 0x04, 0x00, 0x04, 0x00, 0x04, 0x00, 0x00, 0x00, 0x21, 0x00, 0x00, 0x00, 0x73, 0x65, 0x72, 0x76, 0x69, 0x6e, 0x67, 0x5f, 0x64, 0x65, 0x66, 0x61, 0x75, 0x6c, 0x74, 0x5f, 0x6b, 0x65, 0x72, 0x61, 0x73, 0x5f, 0x74, 0x65, 0x6e, 0x73, 0x6f, 0x72, 0x5f, 0x35, 0x30, 0x3a, 0x30, 0x00, 0x00, 0x00, 0x02, 0x00, 0x00, 0x00, 0x01, 0x00, 0x00, 0x00, 0x03, 0x00, 0x00, 0x00, 0x02, 0x00, 0x00, 0x00, 0x20, 0x00, 0x00, 0x00, 0x04, 0x00, 0x00, 0x00, 0xf4, 0xff, 0xff, 0xff, 0x0e, 0x00, 0x00, 0x00, 0x00, 0x00, 0x00, 0x0e, 0x0c, 0x00, 0x0c, 0x00, 0x0b, 0x00, 0x00, 0x00, 0x00, 0x00, 0x04, 0x00, 0x0c, 0x00, 0x00, 0x00, 0x09, 0x00, 0x00, 0x00, 0x00, 0x00, 0x00, 0x09 };

