#pragma once

#ifdef __has_attribute
#define HAVE_ATTRIBUTE(x) __has_attribute(x)
#else
#define HAVE_ATTRIBUTE(x) 0
#endif
#if HAVE_ATTRIBUTE(aligned) || (defined(__GNUC__) && !defined(__clang__))
#define DATA_ALIGN_ATTRIBUTE __attribute__((aligned(4)))
#else
#define DATA_ALIGN_ATTRIBUTE
#endif

// automatically configure network
#define TF_NUM_INPUTS 3
#define TF_NUM_OUTPUTS 1
#define TF_NUM_OPS 1
#define TF_OP_FULLYCONNECTED




// sample data
float x0[3] = {8.86999988556f, 18.00000000000f, 3.46000003815f};


/** model size = 2972 bytes **/
const unsigned char smartLeleModel[] DATA_ALIGN_ATTRIBUTE = { 0x1c, 0x00, 0x00, 0x00, 0x54, 0x46, 0x4c, 0x33, 0x14, 0x00, 0x20, 0x00, 0x1c, 0x00, 0x18, 0x00, 0x14, 0x00, 0x10, 0x00, 0x0c, 0x00, 0x00, 0x00, 0x08, 0x00, 0x04, 0x00, 0x14, 0x00, 0x00, 0x00, 0x1c, 0x00, 0x00, 0x00, 0x8c, 0x00, 0x00, 0x00, 0xe4, 0x00, 0x00, 0x00, 0xe8, 0x06, 0x00, 0x00, 0xf8, 0x06, 0x00, 0x00, 0x38, 0x0b, 0x00, 0x00, 0x03, 0x00, 0x00, 0x00, 0x01, 0x00, 0x00, 0x00, 0x04, 0x00, 0x00, 0x00, 0xce, 0xf8, 0xff, 0xff, 0x0c, 0x00, 0x00, 0x00, 0x1c, 0x00, 0x00, 0x00, 0x3c, 0x00, 0x00, 0x00, 0x0f, 0x00, 0x00, 0x00, 0x73, 0x65, 0x72, 0x76, 0x69, 0x6e, 0x67, 0x5f, 0x64, 0x65, 0x66, 0x61, 0x75, 0x6c, 0x74, 0x00, 0x01, 0x00, 0x00, 0x00, 0x04, 0x00, 0x00, 0x00, 0x90, 0xff, 0xff, 0xff, 0x07, 0x00, 0x00, 0x00, 0x04, 0x00, 0x00, 0x00, 0x08, 0x00, 0x00, 0x00, 0x6f, 0x75, 0x74, 0x70, 0x75, 0x74, 0x5f, 0x30, 0x00, 0x00, 0x00, 0x00, 0x01, 0x00, 0x00, 0x00, 0x04, 0x00, 0x00, 0x00, 0x9a, 0xfa, 0xff, 0xff, 0x04, 0x00, 0x00, 0x00, 0x0e, 0x00, 0x00, 0x00, 0x6b, 0x65, 0x72, 0x61, 0x73, 0x5f, 0x74, 0x65, 0x6e, 0x73, 0x6f, 0x72, 0x5f, 0x34, 0x00, 0x00, 0x02, 0x00, 0x00, 0x00, 0x34, 0x00, 0x00, 0x00, 0x04, 0x00, 0x00, 0x00, 0xdc, 0xff, 0xff, 0xff, 0x0a, 0x00, 0x00, 0x00, 0x04, 0x00, 0x00, 0x00, 0x13, 0x00, 0x00, 0x00, 0x43, 0x4f, 0x4e, 0x56, 0x45, 0x52, 0x53, 0x49, 0x4f, 0x4e, 0x5f, 0x4d, 0x45, 0x54, 0x41, 0x44, 0x41, 0x54, 0x41, 0x00, 0x08, 0x00, 0x0c, 0x00, 0x08, 0x00, 0x04, 0x00, 0x08, 0x00, 0x00, 0x00, 0x09, 0x00, 0x00, 0x00, 0x04, 0x00, 0x00, 0x00, 0x13, 0x00, 0x00, 0x00, 0x6d, 0x69, 0x6e, 0x5f, 0x72, 0x75, 0x6e, 0x74, 0x69, 0x6d, 0x65, 0x5f, 0x76, 0x65, 0x72, 0x73, 0x69, 0x6f, 0x6e, 0x00, 0x0b, 0x00, 0x00, 0x00, 0x00, 0x06, 0x00, 0x00, 0xf8, 0x05, 0x00, 0x00, 0xe8, 0x04, 0x00, 0x00, 0xcc, 0x04, 0x00, 0x00, 0xbc, 0x03, 0x00, 0x00, 0xac, 0x00, 0x00, 0x00, 0xa4, 0x00, 0x00, 0x00, 0x9c, 0x00, 0x00, 0x00, 0x94, 0x00, 0x00, 0x00, 0x74, 0x00, 0x00, 0x00, 0x04, 0x00, 0x00, 0x00, 0x42, 0xfb, 0xff, 0xff, 0x04, 0x00, 0x00, 0x00, 0x60, 0x00, 0x00, 0x00, 0x10, 0x00, 0x00, 0x00, 0x00, 0x00, 0x00, 0x00, 0x08, 0x00, 0x0e, 0x00, 0x08, 0x00, 0x04, 0x00, 0x08, 0x00, 0x00, 0x00, 0x10, 0x00, 0x00, 0x00, 0x24, 0x00, 0x00, 0x00, 0x00, 0x00, 0x06, 0x00, 0x08, 0x00, 0x04, 0x00, 0x06, 0x00, 0x00, 0x00, 0x04, 0x00, 0x00, 0x00, 0x00, 0x00, 0x00, 0x00, 0x0c, 0x00, 0x18, 0x00, 0x14, 0x00, 0x10, 0x00, 0x0c, 0x00, 0x04, 0x00, 0x0c, 0x00, 0x00, 0x00, 0xd6, 0xf2, 0x8a, 0xe5, 0x82, 0xd7, 0x5d, 0x9d, 0x02, 0x00, 0x00, 0x00, 0x02, 0x00, 0x00, 0x00, 0x04, 0x00, 0x00, 0x00, 0x06, 0x00, 0x00, 0x00, 0x32, 0x2e, 0x31, 0x38, 0x2e, 0x30, 0x00, 0x00, 0xae, 0xfb, 0xff, 0xff, 0x04, 0x00, 0x00, 0x00, 0x10, 0x00, 0x00, 0x00, 0x31, 0x2e, 0x31, 0x34, 0x2e, 0x30, 0x00, 0x00, 0x00, 0x00, 0x00, 0x00, 0x00, 0x00, 0x00, 0x00, 0x94, 0xf6, 0xff, 0xff, 0x98, 0xf6, 0xff, 0xff, 0x9c, 0xf6, 0xff, 0xff, 0xd6, 0xfb, 0xff, 0xff, 0x04, 0x00, 0x00, 0x00, 0x00, 0x03, 0x00, 0x00, 0xb8, 0xde, 0x82, 0x3e, 0xd4, 0xfb, 0x90, 0xbe, 0xdd, 0xae, 0x59, 0x3d, 0xe0, 0x49, 0x53, 0x3d, 0x67, 0xa6, 0xd8, 0xbd, 0xff, 0x9c, 0x5c, 0xbf, 0x3b, 0x4a, 0x86, 0x3d, 0x71, 0x43, 0x17, 0x40, 0x1c, 0x08, 0x08, 0x3f, 0x5e, 0xaf, 0x82, 0xbf, 0x10, 0xcf, 0x20, 0x40, 0x8c, 0xb7, 0xc0, 0xbe, 0xc3, 0xff, 0xba, 0xbf, 0xd2, 0xb8, 0xdf, 0xbe, 0x77, 0x11, 0x6f, 0xbf, 0xb1, 0x37, 0x3e, 0x3f, 0xd9, 0x13, 0xf3, 0x3f, 0x5b, 0xec, 0xce, 0x3d, 0xfb, 0x48, 0x49, 0xbd, 0xf9, 0x4b, 0x5d, 0xc0, 0x51, 0x5b, 0x79, 0x3e, 0xac, 0x2a, 0xfd, 0x3f, 0xad, 0x45, 0x89, 0xbf, 0xd7, 0x37, 0x0c, 0x3f, 0x78, 0x53, 0xdc, 0x3e, 0x41, 0x1d, 0xf4, 0x3f, 0xcc, 0xf2, 0xe8, 0xbc, 0x75, 0x3c, 0xf0, 0xbf, 0x34, 0x0d, 0x71, 0xbf, 0x77, 0xcb, 0x14, 0x3f, 0xef, 0xd7, 0xb3, 0x3f, 0x78, 0xab, 0xd8, 0xbf, 0x86, 0x66, 0xc0, 0x3e, 0xd3, 0x3d, 0xc2, 0x3f, 0x33, 0xaf, 0x2e, 0xbe, 0x2e, 0x1e, 0xaa, 0x3e, 0x0a, 0x9c, 0x14, 0xbf, 0x5b, 0x2f, 0x69, 0xc0, 0x54, 0x06, 0xf6, 0xbd, 0x03, 0xdb, 0x3f, 0x3f, 0x9f, 0x5e, 0xfd, 0x3f, 0x26, 0xbb, 0xe1, 0x3d, 0x92, 0x24, 0xe3, 0x3f, 0x30, 0x4c, 0x6f, 0xbf, 0x75, 0xd7, 0xf9, 0x3e, 0x23, 0x07, 0x99, 0x3f, 0x7b, 0x52, 0x3b, 0xc0, 0x2f, 0x0c, 0xa7, 0x3e, 0x8e, 0x6b, 0x3a, 0x3e, 0xb6, 0x2f, 0x27, 0xbe, 0xaf, 0x35, 0xd1, 0x3d, 0xdb, 0xe1, 0xd3, 0x3e, 0x84, 0xe4, 0xe7, 0x3f, 0x88, 0x2a, 0xa6, 0xbc, 0xc3, 0x1f, 0x8a, 0x3f, 0xf6, 0x0a, 0x00, 0xbd, 0xbf, 0x58, 0x72, 0x3e, 0xd8, 0x56, 0xc2, 0xbf, 0x19, 0x84, 0x46, 0xbe, 0xc0, 0xce, 0xd0, 0x3e, 0xbb, 0xe0, 0xa4, 0xbf, 0x93, 0x77, 0x19, 0xc0, 0xad, 0x69, 0xa0, 0xbc, 0x37, 0x83, 0xd1, 0x3e, 0xf9, 0x82, 0xe6, 0x3f, 0x78, 0xab, 0xcf, 0xbc, 0x80, 0x8f, 0x29, 0xbd, 0x35, 0x1c, 0x8e, 0xc0, 0xe1, 0x9e, 0x78, 0x3e, 0x84, 0x75, 0xbe, 0xbf, 0xfb, 0x69, 0xde, 0xbe, 0xa8, 0x1e, 0x59, 0xbf, 0xa2, 0x56, 0xb6, 0x3e, 0x11, 0xc0, 0xbd, 0xbe, 0x7d, 0xa6, 0x63, 0x3e, 0x9f, 0xf1, 0x40, 0x3f, 0x61, 0x80, 0xf9, 0x3f, 0x0c, 0x6c, 0xe6, 0x3d, 0xe1, 0x3a, 0x4a, 0xbd, 0xae, 0x80, 0x4a, 0xc0, 0xfe, 0x56, 0x3b, 0x3e, 0xb3, 0x8b, 0x9b, 0x3e, 0x7f, 0x4b, 0x90, 0xbe, 0xf7, 0xee, 0xb6, 0x3e, 0xcb, 0xbd, 0x86, 0xbf, 0x17, 0xcc, 0x03, 0xc0, 0xe3, 0x02, 0x26, 0xbd, 0x39, 0x4a, 0xa8, 0x3e, 0xec, 0x23, 0xbd, 0xbd, 0x35, 0x53, 0xce, 0x3d, 0x7b, 0x07, 0xd1, 0x3f, 0xd7, 0x11, 0xf7, 0xbf, 0x05, 0xb2, 0xdf, 0x3e, 0x90, 0xb0, 0x7d, 0x3e, 0x44, 0xef, 0x3b, 0xbe, 0xba, 0xca, 0x90, 0x3e, 0x33, 0xb5, 0xdf, 0xbe, 0x84, 0x1d, 0x0b, 0xc0, 0xa0, 0x10, 0xb1, 0xbd, 0x05, 0xbd, 0x91, 0x3e, 0x3d, 0x8b, 0x9d, 0xbe, 0x29, 0xb4, 0x19, 0x3d, 0x75, 0x7a, 0x48, 0x3f, 0xcf, 0xeb, 0xff, 0x3f, 0x91, 0xb9, 0xd7, 0x3d, 0xf5, 0xc4, 0x35, 0x3f, 0x3c, 0xfc, 0xe7, 0x3f, 0x72, 0x76, 0xc1, 0x3d, 0x56, 0xb6, 0x85, 0xbf, 0x73, 0x7f, 0x24, 0x40, 0xbd, 0xce, 0xc4, 0xbe, 0x72, 0xfa, 0xb3, 0xbf, 0x1c, 0x36, 0x0b, 0xbe, 0x6d, 0x8f, 0xca, 0x3e, 0x48, 0x87, 0x95, 0x3e, 0xd3, 0x0e, 0xad, 0xbe, 0xea, 0x20, 0xc1, 0x3e, 0xaf, 0x04, 0x59, 0x3d, 0xa8, 0x82, 0xf9, 0x3f, 0x4d, 0x87, 0xe1, 0x3e, 0x5f, 0xfe, 0xb7, 0x3e, 0xac, 0xb2, 0x39, 0xbe, 0x09, 0xa4, 0x63, 0x3e, 0x6a, 0xf9, 0x62, 0x3e, 0x37, 0xc0, 0x23, 0xbe, 0x4c, 0x24, 0xc7, 0x3f, 0xfe, 0xf4, 0xe9, 0x3d, 0x37, 0xc3, 0x8c, 0xbe, 0xd1, 0xaf, 0x78, 0xbf, 0xd5, 0xd2, 0xb6, 0xbf, 0xb6, 0xf0, 0xd9, 0xbe, 0x00, 0x29, 0x6a, 0xbf, 0xc1, 0x57, 0xda, 0x3e, 0xce, 0xed, 0xf1, 0x3f, 0x51, 0x4a, 0xb4, 0xbc, 0xc1, 0x37, 0xe7, 0xbe, 0xc3, 0xad, 0x19, 0xc0, 0xa3, 0x15, 0xbc, 0xbd, 0x79, 0xf7, 0xa0, 0x3e, 0xfe, 0x49, 0x32, 0xbe, 0x91, 0x49, 0xbb, 0x3e, 0x97, 0xad, 0x30, 0xbc, 0x38, 0xd9, 0x42, 0x3d, 0x7d, 0x47, 0xe6, 0x3a, 0xb7, 0x83, 0x23, 0x3d, 0x02, 0x41, 0x5f, 0xbd, 0xba, 0x14, 0xa7, 0x3c, 0x76, 0x5b, 0x00, 0xbf, 0x5b, 0xac, 0x2b, 0xc0, 0x30, 0x4c, 0xd1, 0xbd, 0x3a, 0xec, 0x49, 0x3f, 0x3b, 0x9c, 0x3e, 0xc0, 0xfd, 0xc5, 0x21, 0xc0, 0x24, 0xe7, 0xa4, 0x3e, 0xb8, 0xb4, 0x9a, 0xbe, 0x07, 0xf0, 0x5d, 0x3e, 0xa1, 0x07, 0x3c, 0xbd, 0x09, 0xd4, 0x77, 0xc0, 0x6b, 0x1c, 0x7e, 0x3e, 0xa6, 0x4c, 0x28, 0x3e, 0x5e, 0xec, 0xd6, 0xbd, 0x08, 0xf5, 0xef, 0x3b, 0x1f, 0x0b, 0x09, 0x3d, 0x08, 0xb8, 0x5d, 0x3c, 0xd5, 0xb3, 0xe3, 0xbc, 0x93, 0xcf, 0xd0, 0x3d, 0x29, 0x20, 0xa9, 0xbd, 0x20, 0xe4, 0x01, 0x3e, 0x1e, 0xf7, 0xdc, 0x3d, 0xa9, 0x29, 0xd6, 0xbb, 0xe5, 0x94, 0x99, 0x3d, 0x83, 0xdd, 0x30, 0xbd, 0x62, 0x27, 0xbb, 0xc0, 0x66, 0x20, 0x76, 0x3e, 0xbd, 0x80, 0xa3, 0x3e, 0x8e, 0x05, 0xae, 0xbe, 0x55, 0x8e, 0x93, 0x3e, 0x3c, 0xd8, 0xa6, 0x3e, 0x5f, 0x43, 0xc6, 0xbe, 0xc1, 0x62, 0x28, 0x3e, 0x6e, 0x4c, 0xff, 0x3d, 0xa3, 0xb4, 0x9c, 0xbc, 0x55, 0x01, 0x4f, 0x3f, 0x61, 0x1f, 0x7e, 0x3f, 0x0c, 0x7e, 0x1b, 0xc0, 0x6c, 0x0b, 0x8b, 0x3e, 0xbe, 0x8e, 0x8d, 0x3e, 0xee, 0x8b, 0x35, 0xbe, 0xb2, 0x26, 0x35, 0x3d, 0x79, 0xe8, 0x80, 0x3e, 0x51, 0xc4, 0x54, 0xbf, 0xc3, 0xc5, 0x0e, 0x40, 0xe2, 0xfe, 0xff, 0xff, 0x04, 0x00, 0x00, 0x00, 0x00, 0x01, 0x00, 0x00, 0x02, 0x76, 0xfd, 0x3f, 0xf0, 0x5d, 0xc6, 0x3f, 0x33, 0xac, 0x28, 0xc0, 0x16, 0x06, 0xf3, 0xbf, 0x99, 0x80, 0xfd, 0xbf, 0x66, 0x84, 0xaf, 0xbf, 0x54, 0xd3, 0x45, 0x3f, 0x17, 0xd2, 0x99, 0xbf, 0xbf, 0x29, 0xea, 0xbf, 0x9f, 0x07, 0x94, 0xbf, 0xf9, 0x30, 0xa4, 0x3e, 0xa3, 0xce, 0xd3, 0xbf, 0x2c, 0x7d, 0xae, 0x3f, 0x6c, 0x6d, 0xbc, 0xbf, 0x9a, 0x8a, 0x8e, 0xbf, 0x92, 0x32, 0x0a, 0x40, 0x36, 0x11, 0xef, 0x3f, 0x50, 0x07, 0xdd, 0xbf, 0xe8, 0x14, 0xa5, 0xbf, 0x07, 0xbe, 0xd6, 0xbf, 0x3d, 0xd5, 0x9b, 0x3f, 0xee, 0x97, 0xdc, 0xbf, 0x20, 0x11, 0x69, 0x3f, 0x94, 0x6f, 0xfd, 0xbf, 0xa4, 0x8d, 0x08, 0x40, 0xb6, 0x39, 0xb6, 0xbf, 0xd0, 0x01, 0x31, 0x3f, 0x7e, 0x6d, 0xe5, 0x3f, 0x45, 0x56, 0x8e, 0x3f, 0x30, 0xca, 0xd9, 0x3f, 0x0f, 0xe3, 0xa7, 0x3e, 0x2a, 0xae, 0xf7, 0x3f, 0x31, 0x50, 0x6d, 0x3f, 0xfb, 0xa2, 0x05, 0x40, 0xc6, 0x41, 0xb8, 0xbf, 0x7e, 0xba, 0xa8, 0xbf, 0x70, 0x95, 0xf8, 0xbf, 0xa5, 0xfd, 0xcc, 0xbf, 0x5a, 0xe5, 0xef, 0x3f, 0xb7, 0xfc, 0x0a, 0xc0, 0x5b, 0x9d, 0xf7, 0x3f, 0xe4, 0x64, 0x7e, 0xbf, 0xea, 0xa6, 0xee, 0x3f, 0x3a, 0xf5, 0xf7, 0xbf, 0x4f, 0xa5, 0xe7, 0xbf, 0xc9, 0x62, 0x7c, 0x3f, 0x99, 0x97, 0xdb, 0x3f, 0x9f, 0xa2, 0x04, 0xbe, 0x0a, 0x4c, 0x34, 0xbe, 0x18, 0x84, 0x8c, 0x3f, 0xb7, 0xd0, 0x0c, 0x3f, 0x08, 0x94, 0x02, 0x40, 0x44, 0xab, 0x55, 0x3f, 0xab, 0x71, 0xe4, 0x3f, 0x97, 0xcf, 0xe9, 0xbd, 0xe1, 0x8e, 0xe4, 0x3f, 0x7e, 0x91, 0xd8, 0x3f, 0x73, 0xf6, 0x8c, 0x3f, 0xd9, 0x60, 0xfd, 0x3f, 0x8c, 0xa6, 0x07, 0x40, 0x53, 0xe5, 0x1e, 0xbf, 0xf7, 0x9a, 0xe5, 0x3f, 0xd6, 0x05, 0xee, 0x3f, 0x6c, 0x07, 0x11, 0xbf, 0xee, 0xff, 0xff, 0xff, 0x04, 0x00, 0x00, 0x00, 0x04, 0x00, 0x00, 0x00, 0x19, 0xe4, 0x8f, 0x3f, 0x00, 0x00, 0x06, 0x00, 0x08, 0x00, 0x04, 0x00, 0x06, 0x00, 0x00, 0x00, 0x04, 0x00, 0x00, 0x00, 0x00, 0x01, 0x00, 0x00, 0xc3, 0xd5, 0xe0, 0x3f, 0xf6, 0x96, 0xb8, 0x3f, 0x05, 0xc4, 0xa9, 0xc0, 0x12, 0x58, 0x8a, 0xc0, 0xa2, 0xe5, 0x9c, 0xc0, 0x5b, 0xf6, 0x29, 0xc0, 0x4e, 0xaf, 0x59, 0xc0, 0xe0, 0x23, 0x56, 0xc0, 0x58, 0x3d, 0x5f, 0xc0, 0x34, 0x76, 0x3a, 0xc0, 0x85, 0xb3, 0x42, 0xc0, 0x2a, 0x91, 0x38, 0xc0, 0xf7, 0x92, 0x30, 0xc0, 0xe5, 0x8a, 0x2d, 0xc0, 0x5e, 0xfb, 0x81, 0xc0, 0x7c, 0x66, 0x8f, 0xc0, 0xa9, 0x25, 0xbf, 0x3f, 0xab, 0x98, 0x59, 0xc0, 0x0f, 0x42, 0xd0, 0xbf, 0xae, 0x45, 0x55, 0xc0, 0x41, 0x8b, 0x24, 0xc0, 0x3f, 0x7f, 0x70, 0xc0, 0xc5, 0x6e, 0x78, 0xc0, 0x88, 0x7e, 0x6b, 0xc0, 0x88, 0x5e, 0xd8, 0x3f, 0x73, 0x12, 0x2d, 0xc0, 0x83, 0x7b, 0x19, 0xc0, 0xfb, 0x0f, 0xde, 0x3f, 0x62, 0x69, 0x3a, 0xc0, 0xd2, 0x25, 0xba, 0x3f, 0x82, 0x55, 0x37, 0xc0, 0xf1, 0xdf, 0xa6, 0x3f, 0x10, 0x09, 0x1b, 0xc0, 0x07, 0xbd, 0xd5, 0x3f, 0xf7, 0x9d, 0x28, 0xc0, 0x13, 0x73, 0x37, 0xc0, 0x22, 0x96, 0x87, 0xc0, 0x15, 0xe0, 0x20, 0xc0, 0xc6, 0xed, 0x00, 0x40, 0x73, 0x02, 0x8a, 0xc0, 0x01, 0x49, 0xa3, 0x3f, 0x92, 0x1d, 0xb1, 0x3f, 0xfb, 0x10, 0xbf, 0x3f, 0x52, 0xa0, 0x75, 0xc0, 0x56, 0x21, 0x7e, 0xc0, 0x33, 0xab, 0x39, 0xc0, 0x09, 0xd3, 0xb2, 0x3f, 0x48, 0xac, 0x20, 0x3d, 0x0f, 0x35, 0x52, 0x3c, 0x5d, 0x2e, 0x1c, 0xc0, 0xea, 0x89, 0x81, 0xc0, 0x65, 0xdd, 0xcb, 0x3f, 0x00, 0xab, 0x6f, 0xc0, 0x11, 0xe9, 0xae, 0x3f, 0x14, 0xac, 0x4d, 0x3d, 0xfb, 0x62, 0xa1, 0x3f, 0x2c, 0x95, 0xa9, 0x3f, 0x58, 0x12, 0xa6, 0xc0, 0xfc, 0xe2, 0xeb, 0x3f, 0x4f, 0xe4, 0xed, 0x3f, 0xbd, 0x8f, 0x39, 0x3f, 0x23, 0xb9, 0x9d, 0xc0, 0xf2, 0x62, 0xc7, 0x3f, 0x3b, 0x63, 0xa6, 0x3f, 0xdc, 0xfb, 0xff, 0xff, 0xe0, 0xfb, 0xff, 0xff, 0x0f, 0x00, 0x00, 0x00, 0x4d, 0x4c, 0x49, 0x52, 0x20, 0x43, 0x6f, 0x6e, 0x76, 0x65, 0x72, 0x74, 0x65, 0x64, 0x2e, 0x00, 0x01, 0x00, 0x00, 0x00, 0x14, 0x00, 0x00, 0x00, 0x00, 0x00, 0x0e, 0x00, 0x18, 0x00, 0x14, 0x00, 0x10, 0x00, 0x0c, 0x00, 0x08, 0x00, 0x04, 0x00, 0x0e, 0x00, 0x00, 0x00, 0x14, 0x00, 0x00, 0x00, 0x1c, 0x00, 0x00, 0x00, 0xd0, 0x00, 0x00, 0x00, 0xd4, 0x00, 0x00, 0x00, 0xd8, 0x00, 0x00, 0x00, 0x04, 0x00, 0x00, 0x00, 0x6d, 0x61, 0x69, 0x6e, 0x00, 0x00, 0x00, 0x00, 0x03, 0x00, 0x00, 0x00, 0x78, 0x00, 0x00, 0x00, 0x34, 0x00, 0x00, 0x00, 0x10, 0x00, 0x00, 0x00, 0x00, 0x00, 0x0a, 0x00, 0x10, 0x00, 0x0c, 0x00, 0x08, 0x00, 0x04, 0x00, 0x0a, 0x00, 0x00, 0x00, 0x0c, 0x00, 0x00, 0x00, 0x10, 0x00, 0x00, 0x00, 0x01, 0x00, 0x00, 0x00, 0x01, 0x00, 0x00, 0x00, 0x07, 0x00, 0x00, 0x00, 0x01, 0x00, 0x00, 0x00, 0x06, 0x00, 0x00, 0x00, 0xce, 0xff, 0xff, 0xff, 0x10, 0x00, 0x00, 0x00, 0x00, 0x00, 0x00, 0x08, 0x0c, 0x00, 0x00, 0x00, 0x10, 0x00, 0x00, 0x00, 0x84, 0xfc, 0xff, 0xff, 0x01, 0x00, 0x00, 0x00, 0x06, 0x00, 0x00, 0x00, 0x03, 0x00, 0x00, 0x00, 0x05, 0x00, 0x00, 0x00, 0x01, 0x00, 0x00, 0x00, 0x02, 0x00, 0x00, 0x00, 0x00, 0x00, 0x0e, 0x00, 0x16, 0x00, 0x00, 0x00, 0x10, 0x00, 0x0c, 0x00, 0x0b, 0x00, 0x04, 0x00, 0x0e, 0x00, 0x00, 0x00, 0x18, 0x00, 0x00, 0x00, 0x00, 0x00, 0x00, 0x08, 0x18, 0x00, 0x00, 0x00, 0x1c, 0x00, 0x00, 0x00, 0x00, 0x00, 0x06, 0x00, 0x08, 0x00, 0x07, 0x00, 0x06, 0x00, 0x00, 0x00, 0x00, 0x00, 0x00, 0x01, 0x01, 0x00, 0x00, 0x00, 0x05, 0x00, 0x00, 0x00, 0x03, 0x00, 0x00, 0x00, 0x00, 0x00, 0x00, 0x00, 0x04, 0x00, 0x00, 0x00, 0x03, 0x00, 0x00, 0x00, 0x01, 0x00, 0x00, 0x00, 0x07, 0x00, 0x00, 0x00, 0x01, 0x00, 0x00, 0x00, 0x00, 0x00, 0x00, 0x00, 0x08, 0x00, 0x00, 0x00, 0xd8, 0x02, 0x00, 0x00, 0x80, 0x02, 0x00, 0x00, 0x2c, 0x02, 0x00, 0x00, 0xd0, 0x01, 0x00, 0x00, 0x80, 0x01, 0x00, 0x00, 0xe0, 0x00, 0x00, 0x00, 0x60, 0x00, 0x00, 0x00, 0x04, 0x00, 0x00, 0x00, 0x5e, 0xfd, 0xff, 0xff, 0x00, 0x00, 0x00, 0x01, 0x14, 0x00, 0x00, 0x00, 0x1c, 0x00, 0x00, 0x00, 0x1c, 0x00, 0x00, 0x00, 0x08, 0x00, 0x00, 0x00, 0x34, 0x00, 0x00, 0x00, 0x02, 0x00, 0x00, 0x00, 0xff, 0xff, 0xff, 0xff, 0x01, 0x00, 0x00, 0x00, 0x48, 0xfd, 0xff, 0xff, 0x1b, 0x00, 0x00, 0x00, 0x53, 0x74, 0x61, 0x74, 0x65, 0x66, 0x75, 0x6c, 0x50, 0x61, 0x72, 0x74, 0x69, 0x74, 0x69, 0x6f, 0x6e, 0x65, 0x64, 0x43, 0x61, 0x6c, 0x6c, 0x5f, 0x31, 0x3a, 0x30, 0x00, 0x02, 0x00, 0x00, 0x00, 0x01, 0x00, 0x00, 0x00, 0x01, 0x00, 0x00, 0x00, 0xb6, 0xfd, 0xff, 0xff, 0x00, 0x00, 0x00, 0x01, 0x14, 0x00, 0x00, 0x00, 0x1c, 0x00, 0x00, 0x00, 0x1c, 0x00, 0x00, 0x00, 0x07, 0x00, 0x00, 0x00, 0x58, 0x00, 0x00, 0x00, 0x02, 0x00, 0x00, 0x00, 0xff, 0xff, 0xff, 0xff, 0x01, 0x00, 0x00, 0x00, 0xa0, 0xfd, 0xff, 0xff, 0x3c, 0x00, 0x00, 0x00, 0x73, 0x65, 0x71, 0x75, 0x65, 0x6e, 0x74, 0x69, 0x61, 0x6c, 0x5f, 0x31, 0x5f, 0x31, 0x2f, 0x64, 0x65, 0x6e, 0x73, 0x65, 0x5f, 0x33, 0x5f, 0x31, 0x2f, 0x4d, 0x61, 0x74, 0x4d, 0x75, 0x6c, 0x3b, 0x73, 0x65, 0x71, 0x75, 0x65, 0x6e, 0x74, 0x69, 0x61, 0x6c, 0x5f, 0x31, 0x5f, 0x31, 0x2f, 0x64, 0x65, 0x6e, 0x73, 0x65, 0x5f, 0x33, 0x5f, 0x31, 0x2f, 0x41, 0x64, 0x64, 0x00, 0x00, 0x00, 0x00, 0x02, 0x00, 0x00, 0x00, 0x01, 0x00, 0x00, 0x00, 0x01, 0x00, 0x00, 0x00, 0x32, 0xfe, 0xff, 0xff, 0x00, 0x00, 0x00, 0x01, 0x14, 0x00, 0x00, 0x00, 0x1c, 0x00, 0x00, 0x00, 0x1c, 0x00, 0x00, 0x00, 0x06, 0x00, 0x00, 0x00, 0x78, 0x00, 0x00, 0x00, 0x02, 0x00, 0x00, 0x00, 0xff, 0xff, 0xff, 0xff, 0x40, 0x00, 0x00, 0x00, 0x1c, 0xfe, 0xff, 0xff, 0x5e, 0x00, 0x00, 0x00, 0x73, 0x65, 0x71, 0x75, 0x65, 0x6e, 0x74, 0x69, 0x61, 0x6c, 0x5f, 0x31, 0x5f, 0x31, 0x2f, 0x64, 0x65, 0x6e, 0x73, 0x65, 0x5f, 0x32, 0x5f, 0x31, 0x2f, 0x4d, 0x61, 0x74, 0x4d, 0x75, 0x6c, 0x3b, 0x73, 0x65, 0x71, 0x75, 0x65, 0x6e, 0x74, 0x69, 0x61, 0x6c, 0x5f, 0x31, 0x5f, 0x31, 0x2f, 0x64, 0x65, 0x6e, 0x73, 0x65, 0x5f, 0x32, 0x5f, 0x31, 0x2f, 0x52, 0x65, 0x6c, 0x75, 0x3b, 0x73, 0x65, 0x71, 0x75, 0x65, 0x6e, 0x74, 0x69, 0x61, 0x6c, 0x5f, 0x31, 0x5f, 0x31, 0x2f, 0x64, 0x65, 0x6e, 0x73, 0x65, 0x5f, 0x32, 0x5f, 0x31, 0x2f, 0x42, 0x69, 0x61, 0x73, 0x41, 0x64, 0x64, 0x00, 0x00, 0x02, 0x00, 0x00, 0x00, 0x01, 0x00, 0x00, 0x00, 0x40, 0x00, 0x00, 0x00, 0x22, 0xff, 0xff, 0xff, 0x00, 0x00, 0x00, 0x01, 0x10, 0x00, 0x00, 0x00, 0x10, 0x00, 0x00, 0x00, 0x05, 0x00, 0x00, 0x00, 0x2c, 0x00, 0x00, 0x00, 0xa8, 0xfe, 0xff, 0xff, 0x1f, 0x00, 0x00, 0x00, 0x73, 0x65, 0x71, 0x75, 0x65, 0x6e, 0x74, 0x69, 0x61, 0x6c, 0x5f, 0x31, 0x5f, 0x31, 0x2f, 0x64, 0x65, 0x6e, 0x73, 0x65, 0x5f, 0x32, 0x5f, 0x31, 0x2f, 0x4d, 0x61, 0x74, 0x4d, 0x75, 0x6c, 0x00, 0x02, 0x00, 0x00, 0x00, 0x40, 0x00, 0x00, 0x00, 0x03, 0x00, 0x00, 0x00, 0x6e, 0xff, 0xff, 0xff, 0x00, 0x00, 0x00, 0x01, 0x10, 0x00, 0x00, 0x00, 0x10, 0x00, 0x00, 0x00, 0x04, 0x00, 0x00, 0x00, 0x3c, 0x00, 0x00, 0x00, 0xf4, 0xfe, 0xff, 0xff, 0x2f, 0x00, 0x00, 0x00, 0x73, 0x65, 0x71, 0x75, 0x65, 0x6e, 0x74, 0x69, 0x61, 0x6c, 0x5f, 0x31, 0x5f, 0x31, 0x2f, 0x64, 0x65, 0x6e, 0x73, 0x65, 0x5f, 0x32, 0x5f, 0x31, 0x2f, 0x42, 0x69, 0x61, 0x73, 0x41, 0x64, 0x64, 0x2f, 0x52, 0x65, 0x61, 0x64, 0x56, 0x61, 0x72, 0x69, 0x61, 0x62, 0x6c, 0x65, 0x4f, 0x70, 0x00, 0x01, 0x00, 0x00, 0x00, 0x40, 0x00, 0x00, 0x00, 0xc6, 0xff, 0xff, 0xff, 0x00, 0x00, 0x00, 0x01, 0x10, 0x00, 0x00, 0x00, 0x10, 0x00, 0x00, 0x00, 0x03, 0x00, 0x00, 0x00, 0x1c, 0x00, 0x00, 0x00, 0x4c, 0xff, 0xff, 0xff, 0x0f, 0x00, 0x00, 0x00, 0x61, 0x72, 0x69, 0x74, 0x68, 0x2e, 0x63, 0x6f, 0x6e, 0x73, 0x74, 0x61, 0x6e, 0x74, 0x31, 0x00, 0x01, 0x00, 0x00, 0x00, 0x01, 0x00, 0x00, 0x00, 0x00, 0x00, 0x16, 0x00, 0x18, 0x00, 0x14, 0x00, 0x00, 0x00, 0x10, 0x00, 0x0c, 0x00, 0x08, 0x00, 0x00, 0x00, 0x00, 0x00, 0x00, 0x00, 0x07, 0x00, 0x16, 0x00, 0x00, 0x00, 0x00, 0x00, 0x00, 0x01, 0x10, 0x00, 0x00, 0x00, 0x10, 0x00, 0x00, 0x00, 0x02, 0x00, 0x00, 0x00, 0x1c, 0x00, 0x00, 0x00, 0x9c, 0xff, 0xff, 0xff, 0x0e, 0x00, 0x00, 0x00, 0x61, 0x72, 0x69, 0x74, 0x68, 0x2e, 0x63, 0x6f, 0x6e, 0x73, 0x74, 0x61, 0x6e, 0x74, 0x00, 0x00, 0x02, 0x00, 0x00, 0x00, 0x01, 0x00, 0x00, 0x00, 0x40, 0x00, 0x00, 0x00, 0x00, 0x00, 0x16, 0x00, 0x1c, 0x00, 0x18, 0x00, 0x00, 0x00, 0x14, 0x00, 0x10, 0x00, 0x0c, 0x00, 0x00, 0x00, 0x00, 0x00, 0x08, 0x00, 0x07, 0x00, 0x16, 0x00, 0x00, 0x00, 0x00, 0x00, 0x00, 0x01, 0x14, 0x00, 0x00, 0x00, 0x20, 0x00, 0x00, 0x00, 0x20, 0x00, 0x00, 0x00, 0x01, 0x00, 0x00, 0x00, 0x40, 0x00, 0x00, 0x00, 0x02, 0x00, 0x00, 0x00, 0xff, 0xff, 0xff, 0xff, 0x03, 0x00, 0x00, 0x00, 0x04, 0x00, 0x04, 0x00, 0x04, 0x00, 0x00, 0x00, 0x20, 0x00, 0x00, 0x00, 0x73, 0x65, 0x72, 0x76, 0x69, 0x6e, 0x67, 0x5f, 0x64, 0x65, 0x66, 0x61, 0x75, 0x6c, 0x74, 0x5f, 0x6b, 0x65, 0x72, 0x61, 0x73, 0x5f, 0x74, 0x65, 0x6e, 0x73, 0x6f, 0x72, 0x5f, 0x34, 0x3a, 0x30, 0x00, 0x00, 0x00, 0x00, 0x02, 0x00, 0x00, 0x00, 0x01, 0x00, 0x00, 0x00, 0x03, 0x00, 0x00, 0x00, 0x02, 0x00, 0x00, 0x00, 0x20, 0x00, 0x00, 0x00, 0x04, 0x00, 0x00, 0x00, 0xf4, 0xff, 0xff, 0xff, 0x0e, 0x00, 0x00, 0x00, 0x00, 0x00, 0x00, 0x0e, 0x0c, 0x00, 0x0c, 0x00, 0x0b, 0x00, 0x00, 0x00, 0x00, 0x00, 0x04, 0x00, 0x0c, 0x00, 0x00, 0x00, 0x09, 0x00, 0x00, 0x00, 0x00, 0x00, 0x00, 0x09 };

